<unk>	0
<s>	0
</s>	0
.	-3.05954
▁the	-3.353
s	-3.61877
,	-3.62029
'	-3.86991
▁to	-3.94688
▁a	-4.09624
▁of	-4.207
▁you	-4.23898
t	-4.26808
▁and	-4.52258
▁You	-4.53553
▁is	-4.58391
▁in	-4.67869
▁"	-4.82681
▁it	-4.89784
ing	-5.00922
▁The	-5.02109
▁	-5.04235
▁rulebook	-5.04994
▁can	-5.07636
▁rule	-5.08281
▁on	-5.19587
▁that	-5.22789
▁not	-5.30746
▁your	-5.32662
▁I	-5.40247
▁for	-5.48203
▁(	-5.51602
▁out	-5.5289
▁with	-5.58302
ed	-5.58394
▁are	-5.59067
-	-5.61281
▁have	-5.62748
▁be	-5.6884
d	-5.7431
▁from	-5.80837
re	-5.81477
▁at	-5.82629
)	-5.84341
:	-5.90901
▁but	-5.96049
▁A	-5.96861
▁It	-5.97072
!	-6.02832
."	-6.04905
▁this	-6.05678
▁into	-6.07903
▁as	-6.08989
y	-6.10537
▁report	-6.14695
?	-6.14954
▁up	-6.15542
▁off	-6.16575
▁room	-6.2146
ly	-6.21611
▁something	-6.23732
▁has	-6.24339
▁no	-6.24566
▁do	-6.25454
▁by	-6.28105
▁see	-6.32685
▁an	-6.33113
▁or	-6.33989
"	-6.34341
er	-6.3586
▁he	-6.38923
▁one	-6.39721
▁carry	-6.41967
▁here	-6.42114
▁check	-6.43043
e	-6.44758
▁about	-6.45428
▁nothing	-6.45771
▁what	-6.46986
▁all	-6.4756
▁his	-6.47939
▁There	-6.51304
m	-6.52088
n	-6.5237
▁don	-6.55702
▁which	-6.55856
▁[	-6.57382
▁like	-6.57419
▁would	-6.59352
▁That	-6.59703
▁her	-6.60521
▁was	-6.62248
▁game	-6.62366
I	-6.62851
▁before	-6.63056
ll	-6.64254
▁if	-6.65091
▁already	-6.65321
▁only	-6.65897
▁Pass	-6.66125
▁get	-6.66161
▁there	-6.68358
▁down	-6.70519
▁so	-6.72178
▁,	-6.7304
▁now	-6.73369
▁me	-6.75387
▁just	-6.75666
▁open	-6.7584
▁back	-6.76317
▁door	-6.77582
ve	-6.80839
r	-6.821
▁some	-6.82235
▁way	-6.83404
▁when	-6.84962
o	-6.85133
▁will	-6.85755
▁through	-6.86346
▁been	-6.87022
▁Instead	-6.8755
▁He	-6.87727
]	-6.88139
▁light	-6.88265
g	-6.88268
,"	-6.88613
▁too	-6.88654
▁more	-6.90742
▁say	-6.91953
A	-6.9261
a	-6.92772
▁go	-6.92875
in	-6.93636
▁time	-6.95186
▁standard	-6.95662
▁says	-6.96262
...	-6.97104
▁closed	-6.98521
▁take	-7.00989
▁'	-7.01472
▁But	-7.01979
▁she	-7.021
▁around	-7.03417
▁This	-7.04941
on	-7.05406
▁things	-7.05646
▁other	-7.05929
▁after	-7.06977
es	-7.07137
▁look	-7.07793
▁over	-7.08586
?"	-7.08601
▁seem	-7.08681
▁<	-7.11609
▁my	-7.13509
▁want	-7.13547
▁yourself	-7.14267
▁put	-7.16625
▁need	-7.17446
▁any	-7.18535
or	-7.18796
al	-7.20294
▁find	-7.21133
▁know	-7.21265
▁player	-7.21414
▁him	-7.21428
▁little	-7.21513
▁un	-7.21587
▁s	-7.21656
!"	-7.21671
▁first	-7.21755
▁response	-7.24065
▁them	-7.242
;	-7.25824
▁She	-7.25909
▁moment	-7.26253
▁seems	-7.26299
▁they	-7.26404
▁They	-7.26497
▁looks	-7.26817
▁table	-7.28407
▁had	-7.28954
▁taking	-7.29029
▁descriptions	-7.29165
▁its	-7.29293
▁think	-7.30521
p	-7.30769
▁block	-7.3136
▁S	-7.3149
▁dark	-7.32036
▁use	-7.32757
▁than	-7.32846
▁place	-7.32925
▁doesn	-7.34109
▁make	-7.34334
▁could	-7.34481
▁Printing	-7.34502
▁must	-7.36777
▁-	-7.36898
▁number	-7.36941
▁going	-7.37446
▁then	-7.37731
▁empty	-7.37901
▁away	-7.38092
>	-7.39017
▁much	-7.39405
▁small	-7.40927
▁object	-7.41153
▁inside	-7.41353
▁Your	-7.41508
▁score	-7.42332
le	-7.44914
▁wall	-7.45474
▁In	-7.46666
▁very	-7.46839
▁***	-7.48143
▁anything	-7.48407
▁name	-7.48997
▁turn	-7.50187
▁long	-7.50199
▁may	-7.50239
▁good	-7.50923
▁water	-7.51178
▁thing	-7.51774
▁man	-7.52095
▁story	-7.53714
▁north	-7.54519
▁head	-7.55775
▁aren	-7.56325
▁hear	-7.56743
▁again	-7.56777
▁east	-7.57223
▁where	-7.57322
▁2:	-7.57451
▁people	-7.57459
▁1:	-7.57658
S	-7.5818
▁right	-7.58543
▁we	-7.58872
▁--	-7.58955
▁under	-7.591
▁give	-7.59335
c	-7.59567
You	-7.59649
▁floor	-7.60016
▁might	-7.60628
▁while	-7.60874
▁south	-7.61196
▁were	-7.61426
▁west	-7.61598
▁does	-7.61707
▁end	-7.63036
▁=	-7.64326
▁holding	-7.64581
▁try	-7.65601
▁switch	-7.65866
▁hand	-7.65931
▁Attempt	-7.66017
▁To	-7.66637
▁side	-7.67356
▁enough	-7.67399
▁far	-7.67733
▁set	-7.67796
▁should	-7.68753
▁feel	-7.69287
▁even	-7.69879
▁No	-7.702
▁their	-7.71677
▁still	-7.71726
▁hands	-7.72341
▁lock	-7.72935
▁who	-7.73284
th	-7.73684
l	-7.73702
▁move	-7.73726
i	-7.74144
�	-7.74387
b	-7.75854
▁did	-7.75988
▁such	-7.7638
▁re	-7.76397
▁two	-7.76929
▁close	-7.7699
▁didn	-7.775
able	-7.77513
▁sure	-7.7787
▁really	-7.77895
▁large	-7.77956
ri	-7.77966
▁eyes	-7.78382
▁If	-7.79079
▁C	-7.79218
h	-7.79352
▁As	-7.79707
▁never	-7.80519
▁many	-7.80933
▁being	-7.83334
▁noun	-7.83705
▁error	-7.83734
▁well	-7.84448
▁file	-7.84686
▁reach	-7.84756
▁achieve	-7.85385
ur	-7.85496
▁top	-7.85555
w	-7.8605
▁[1	-7.8609
▁help	-7.86556
▁And	-7.8664
▁What	-7.8665
▁how	-7.87284
▁isn	-7.87762
ic	-7.88102
▁direction	-7.88422
▁few	-7.88774
▁carrying	-7.89163
ar	-7.89205
to	-7.90126
▁read	-7.90158
▁those	-7.90191
▁de	-7.903
▁old	-7.90726
f	-7.91477
▁P	-7.91521
▁face	-7.91567
el	-7.91654
▁print	-7.91857
il	-7.92139
C	-7.92295
▁once	-7.92535
B	-7.93246
▁work	-7.93426
▁objects	-7.93751
▁B	-7.94332
▁mean	-7.94526
▁play	-7.9489
▁black	-7.95
ter	-7.95123
▁Nothing	-7.95285
▁talk	-7.96294
▁looking	-7.96947
.]	-7.97595
▁line	-7.97803
_	-7.97904
▁got	-7.98076
▁e	-7.98949
▁E	-7.99095
▁F	-7.99161
▁transcript	-7.99244
▁won	-7.99252
en	-7.99506
u	-7.99604
▁key	-7.99681
▁without	-8.00229
▁notification	-8.00289
k	-8.00796
▁enter	-8.00816
E	-8.00976
▁last	-8.01033
▁After	-8.02075
▁always	-8.02915
an	-8.02978
us	-8.03029
▁failed	-8.03245
The	-8.03514
ro	-8.03842
▁left	-8.03974
▁above	-8.04334
▁non	-8.04542
▁ground	-8.04885
▁though	-8.05099
▁change	-8.05595
ation	-8.05815
▁final	-8.05862
▁onto	-8.05999
▁understand	-8.06355
▁description	-8.06483
▁red	-8.06503
▁second	-8.06961
▁An	-8.07808
▁action	-8.0807
▁short	-8.08503
▁part	-8.08742
▁made	-8.09481
▁kind	-8.09837
P	-8.10382
▁front	-8.10753
▁air	-8.10929
D	-8.11855
▁di	-8.1189
R	-8.11966
▁begin	-8.12039
▁locked	-8.12063
▁behind	-8.12174
▁text	-8.12931
▁also	-8.13046
▁itself	-8.13245
▁bit	-8.13254
▁come	-8.13491
no	-8.1364
▁quite	-8.13789
▁outside	-8.13842
▁Switch	-8.14026
▁cannot	-8.14177
is	-8.14511
lo	-8.14816
it	-8.15161
as	-8.15381
▁better	-8.15427
▁able	-8.15759
▁else	-8.15794
▁command	-8.16165
▁window	-8.16335
▁since	-8.1637
M	-8.16401
▁someone	-8.16697
▁gives	-8.16791
▁fit	-8.17373
▁Those	-8.17601
▁exit	-8.18081
▁Not	-8.18084
▁list	-8.18127
▁wearing	-8.18221
ling	-8.1835
T	-8.18673
▁undefined	-8.18762
▁Lib	-8.19517
▁la	-8.20229
▁against	-8.20429
▁new	-8.20549
▁stone	-8.21218
la	-8.21348
▁tell	-8.21378
▁**]	-8.21574
▁ask	-8.2217
▁tried	-8.22257
ment	-8.22267
Ms	-8.22399
▁another	-8.22799
at	-8.23322
▁On	-8.23406
/	-8.2343
▁most	-8.24141
▁leads	-8.24298
O	-8.2443
▁white	-8.24979
first	-8.24991
▁ever	-8.25072
▁begins	-8.25151
U	-8.25993
▁question	-8.26323
▁option	-8.26528
▁point	-8.26543
▁T	-8.27051
ra	-8.27386
▁life	-8.27405
▁fixed	-8.27819
▁3:	-8.28113
▁remove	-8.28243
▁worn	-8.28333
▁body	-8.28416
▁used	-8.29341
▁sound	-8.29381
▁probably	-8.29403
▁switching	-8.29819
▁property	-8.3014
▁items	-8.30642
▁am	-8.30651
▁next	-8.30827
▁available	-8.30828
▁glass	-8.30954
▁abbreviated	-8.31097
ul	-8.31191
est	-8.3124
less	-8.31403
▁feet	-8.31424
#	-8.31507
ion	-8.31564
▁unexpected	-8.31667
▁When	-8.32202
▁n	-8.32269
▁leave	-8.32421
▁instead	-8.32693
▁drop	-8.32858
ry	-8.33134
me	-8.33171
▁house	-8.33521
▁mind	-8.3395
▁We	-8.3398
▁con	-8.34219
▁haven	-8.34323
▁fire	-8.34721
▁high	-8.35062
x	-8.35078
▁machine	-8.3541
li	-8.35514
ers	-8.35784
ive	-8.35804
▁metal	-8.35854
▁almost	-8.35963
▁1	-8.36065
▁voice	-8.36848
▁idea	-8.37055
▁own	-8.37093
."]	-8.37136
▁type	-8.37534
▁M	-8.37613
ent	-8.37641
▁found	-8.38144
▁car	-8.38411
▁push	-8.38541
▁along	-8.38644
▁smell	-8.39149
▁across	-8.39644
ma	-8.39979
▁world	-8.40203
▁interest	-8.40341
▁H	-8.40492
and	-8.41018
▁these	-8.41199
▁answer	-8.41263
▁walls	-8.41432
▁three	-8.41438
▁D	-8.41547
▁Sorry	-8.41806
ine	-8.41944
te	-8.41993
▁W	-8.42099
▁let	-8.42268
▁opening	-8.42344
▁day	-8.42499
▁class	-8.4254
▁N	-8.42543
▁course	-8.4266
ad	-8.43127
▁rest	-8.43133
▁stand	-8.43605
ity	-8.43655
▁multiple	-8.43826
▁word	-8.4396
am	-8.44136
ir	-8.44255
ia	-8.444
▁getting	-8.44457
▁hard	-8.44699
▁path	-8.44712
▁green	-8.44967
▁wouldn	-8.4501
G	-8.45024
▁pull	-8.45571
▁display	-8.45905
▁comes	-8.45983
ge	-8.4621
▁unlock	-8.46966
▁dead	-8.4705
ci	-8.47053
co	-8.47631
ch	-8.47839
▁because	-8.48489
▁version	-8.48668
ted	-8.48681
▁R	-8.48743
▁said	-8.48939
▁o	-8.48959
▁value	-8.49082
▁between	-8.49314
▁notice	-8.49608
▁hole	-8.49661
ate	-8.49676
the	-8.5023
▁done	-8.50356
▁trying	-8.5039
▁co	-8.5059
▁rather	-8.50647
▁examine	-8.50806
▁K	-8.50955
▁inventory	-8.50962
▁G	-8.51016
▁feeling	-8.51128
z	-8.51138
F	-8.51209
▁goes	-8.51714
▁pushing	-8.51743
▁until	-8.51947
▁asking	-8.52014
▁wait	-8.52233
ness	-8.52265
▁run	-8.52417
▁O	-8.5295
um	-8.531
sh	-8.53129
▁ends	-8.53153
▁stage	-8.53167
id	-8.53209
▁mode	-8.53547
▁dis	-8.53736
▁giving	-8.53828
▁currently	-8.53862
▁best	-8.54227
▁start	-8.54263
▁sort	-8.54287
line	-8.54508
▁For	-8.54891
▁yes	-8.54984
▁wear	-8.55072
▁blue	-8.55219
▁cut	-8.55643
▁break	-8.55652
▁below	-8.55691
▁doing	-8.55839
▁gone	-8.55927
de	-8.56036
▁Tried	-8.56125
se	-8.56349
ist	-8.56456
▁big	-8.56598
ta	-8.56827
▁possible	-8.57062
▁So	-8.57112
▁bed	-8.57603
▁seen	-8.57643
▁Before	-8.57815
▁L	-8.58069
▁...	-8.58192
▁d	-8.58548
▁turns	-8.58969
▁full	-8.59069
▁examining	-8.59288
▁Ask	-8.59327
▁>	-8.5939
▁person	-8.5941
▁us	-8.59427
ver	-8.59429
▁access	-8.59535
un	-8.59875
▁saying	-8.59947
▁appears	-8.59972
▁At	-8.60136
▁guard	-8.60197
▁great	-8.60408
▁jump	-8.60552
Y	-8.60556
▁keep	-8.60701
▁Re	-8.60845
L	-8.60863
▁unable	-8.60907
ant	-8.60911
ne	-8.61071
▁climb	-8.61378
▁lead	-8.61674
▁hold	-8.61724
--	-8.61792
▁With	-8.62009
▁ceiling	-8.62047
age	-8.62143
▁yet	-8.62163
▁bad	-8.62166
▁thought	-8.62189
ol	-8.62291
▁book	-8.62449
▁every	-8.62629
▁each	-8.62672
mo	-8.62704
▁box	-8.62835
4	-8.62924
▁space	-8.62931
▁lies	-8.62936
which	-8.63142
▁standing	-8.63193
▁past	-8.63257
ian	-8.63383
ie	-8.63831
▁heavy	-8.63843
▁locale	-8.6385
It	-8.6397
▁care	-8.63986
▁walk	-8.6448
▁night	-8.64848
▁sense	-8.65502
▁act	-8.65524
▁words	-8.65618
up	-8.66229
▁touch	-8.66255
▁relation	-8.66467
H	-8.66472
▁deep	-8.6651
▁same	-8.6658
▁remember	-8.66715
▁wooden	-8.66757
▁p	-8.6717
▁button	-8.67299
▁doors	-8.67299
▁our	-8.67466
▁eat	-8.67474
▁V	-8.67474
▁test	-8.67581
..."	-8.67726
led	-8.67756
ti	-8.67764
▁2	-8.67798
▁desk	-8.67825
ut	-8.67986
▁free	-8.68195
ous	-8.68255
▁sign	-8.68325
▁Table	-8.68491
▁woman	-8.68618
What	-8.6862
▁containers	-8.68709
3	-8.68856
▁corner	-8.68862
▁darkness	-8.68966
v	-8.68986
▁cold	-8.69168
▁One	-8.69217
▁happens	-8.69431
▁single	-8.69584
▁Then	-8.69658
▁lot	-8.69905
▁/	-8.69939
".	-8.70074
▁Please	-8.70087
▁broken	-8.702
▁write	-8.70272
▁paper	-8.70341
▁g	-8.70453
W	-8.70538
▁printing	-8.70615
2	-8.7093
▁lack	-8.71064
▁less	-8.71151
▁string	-8.71176
▁home	-8.71279
ish	-8.71374
ies	-8.71427
▁takes	-8.71743
ce	-8.72219
(	-8.72266
▁show	-8.72428
▁c	-8.72484
na	-8.7258
▁near	-8.72584
▁years	-8.72949
▁Just	-8.7308
▁creature	-8.73295
▁provide	-8.73306
▁location	-8.73318
▁#	-8.73328
▁verb	-8.73357
▁makes	-8.73514
▁towards	-8.73528
op	-8.73562
per	-8.73625
1	-8.73675
les	-8.73711
▁pass	-8.73816
▁half	-8.73932
▁area	-8.73983
▁self	-8.74158
▁status	-8.74372
▁providing	-8.74764
▁form	-8.74896
▁stands	-8.74959
▁various	-8.75087
man	-8.75277
N	-8.75287
▁sometimes	-8.75327
▁bar	-8.75688
illegal	-8.75762
▁wind	-8.75889
▁quickly	-8.75934
▁How	-8.75983
▁power	-8.76002
▁tree	-8.76027
▁Taking	-8.76028
▁en	-8.76227
▁Request	-8.76965
▁All	-8.77116
▁size	-8.77125
▁sc	-8.77201
▁sp	-8.77879
▁Now	-8.77933
▁missing	-8.78112
go	-8.78197
undo	-8.78479
▁sorry	-8.78572
▁hardly	-8.79275
",	-8.79399
▁per	-8.79642
▁nowhere	-8.79825
▁Score	-8.79901
▁Oh	-8.79933
▁together	-8.79992
▁press	-8.80015
▁mouth	-8.80205
▁3	-8.80414
▁pro	-8.80545
▁Saying	-8.80685
▁four	-8.80729
▁Are	-8.80929
▁both	-8.81112
▁scene	-8.81137
▁Decid	-8.81494
▁Keep	-8.81684
▁repeat	-8.81834
▁drink	-8.81851
pe	-8.81884
▁surface	-8.82177
▁thick	-8.82524
▁girl	-8.8255
▁row	-8.82644
tic	-8.82771
▁spot	-8.82835
▁case	-8.82857
▁memory	-8.82896
▁De	-8.83209
That	-8.83414
he	-8.83643
▁least	-8.83651
▁why	-8.83722
ck	-8.83858
▁dream	-8.84028
▁special	-8.84086
▁specific	-8.84106
▁Be	-8.84401
▁Preferr	-8.84504
▁pick	-8.84508
▁contain	-8.84555
▁stop	-8.84669
▁Do	-8.8479
▁0	-8.85026
▁ship	-8.85128
▁rock	-8.85229
▁step	-8.8544
▁wide	-8.85482
▁everything	-8.85501
▁insert	-8.85509
▁clothes	-8.8555
▁places	-8.85602
▁held	-8.85696
getting	-8.8575
▁unless	-8.8598
ful	-8.86201
be	-8.86454
▁correct	-8.86562
▁clear	-8.86803
mb	-8.86898
▁ha	-8.86975
No	-8.87122
▁Looking	-8.87148
ated	-8.87224
▁love	-8.87433
▁subject	-8.87509
out	-8.87542
one	-8.87618
▁pretty	-8.8764
▁**	-8.8783
!]	-8.88021
▁strange	-8.88041
providing	-8.88081
▁reason	-8.88458
▁eye	-8.88748
▁sky	-8.89235
▁piece	-8.8924
▁soon	-8.89459
▁Time	-8.89487
ward	-8.8962
▁His	-8.89756
▁blood	-8.89913
bo	-8.89983
▁Library	-8.90067
▁convert	-8.90338
di	-8.9051
ary	-8.90553
▁wave	-8.90554
▁wrong	-8.90607
▁slightly	-8.90631
▁hair	-8.90644
▁THE	-8.9066
▁using	-8.91435
▁taste	-8.91517
▁fall	-8.919
▁pronoun	-8.92048
▁return	-8.92272
▁visible	-8.92417
ance	-8.92542
▁northeast	-8.92706
▁entry	-8.92801
▁paragraph	-8.93126
▁view	-8.93567
▁f	-8.9362
▁ten	-8.9392
▁figure	-8.9402
way	-8.94108
mp	-8.94157
▁chair	-8.9419
▁b	-8.944
▁mo	-8.94414
▁interpreter	-8.94846
▁che	-8.94885
▁parser	-8.95277
po	-8.95313
▁actions	-8.95347
▁search	-8.9549
▁building	-8.95674
closed	-8.95688
▁v	-8.95698
▁�	-8.95751
▁waving	-8.95856
▁rope	-8.9587
▁anyway	-8.9593
▁Y	-8.95943
▁attempt	-8.96245
▁wood	-8.96268
▁plural	-8.96711
5	-8.96815
▁road	-8.97117
▁sit	-8.97342
▁sun	-8.97364
▁within	-8.97428
▁bottle	-8.97469
▁control	-8.97489
▁scenery	-8.97679
▁gate	-8.9782
▁nice	-8.97871
▁code	-8.97877
▁whom	-8.98207
▁street	-8.98416
ring	-8.98452
▁Ma	-8.98644
▁northwest	-8.98761
looking	-8.98807
▁tall	-8.98923
▁southeast	-8.99163
▁real	-8.99195
▁making	-8.99196
ha	-8.9938
▁announce	-8.99454
▁forest	-8.99472
▁slowly	-8.99473
▁later	-8.99508
▁previous	-8.99541
▁computer	-8.99556
pi	-8.99659
K	-8.99663
▁arrives	-8.99681
▁couldn	-8.99705
▁Q	-8.99725
▁southwest	-8.99867
▁contents	-9.00032
fi	-9.00098
▁ne	-9.00466
▁da	-9.00766
ard	-9.00803
▁Which	-9.00896
▁Start	-9.01038
existent	-9.01137
abbreviated	-9.01152
▁)	-9.01239
▁main	-9.01516
▁suddenly	-9.01767
▁several	-9.0184
object	-9.01912
ph	-9.01969
▁upon	-9.0211
▁talking	-9.02128
▁exactly	-9.02165
▁le	-9.02221
▁arm	-9.02223
▁immediately	-9.02239
ag	-9.02279
▁ho	-9.02302
▁foot	-9.0241
▁lost	-9.0244
ster	-9.0257
▁touching	-9.02613
▁Well	-9.02658
▁capacity	-9.0279
*	-9.02922
ke	-9.03093
ping	-9.03202
▁means	-9.03378
▁[2	-9.03383
▁preferring	-9.03494
end	-9.03567
▁trees	-9.03754
▁continues	-9.03769
ny	-9.03845
▁whole	-9.0436
▁se	-9.04425
0	-9.04541
▁happened	-9.04543
vi	-9.04661
▁perhaps	-9.0472
even	-9.04824
ving	-9.04936
▁tiny	-9.04972
▁prefer	-9.05022
ick	-9.05076
▁waiting	-9.05146
▁strong	-9.05172
tro	-9.05215
▁entering	-9.05222
ating	-9.05367
▁called	-9.05379
Oh	-9.05425
▁putting	-9.05643
▁Can	-9.05644
▁character	-9.05755
▁runs	-9.05784
▁edge	-9.05795
em	-9.05915
▁office	-9.06213
ow	-9.06229
▁item	-9.06258
do	-9.06261
▁attribute	-9.0627
mon	-9.06463
▁panel	-9.06468
▁watch	-9.06788
▁ma	-9.0697
▁five	-9.07005
▁coming	-9.07012
▁hope	-9.07077
▁commands	-9.0709
▁shut	-9.07182
▁From	-9.07208
▁l	-9.07532
▁ba	-9.07559
ally	-9.07609
om	-9.07725
gu	-9.07745
io	-9.07783
▁Or	-9.07977
▁lie	-9.08096
▁message	-9.081
▁narrow	-9.08249
▁Mr	-9.08308
▁sea	-9.08327
▁covered	-9.08611
▁Too	-9.08645
9	-9.08653
▁order	-9.08706
▁call	-9.0875
▁Me	-9.08758
▁stuff	-9.08817
▁saved	-9.0903
▁asks	-9.09161
▁note	-9.09182
ni	-9.09201
▁himself	-9.09366
▁longer	-9.09706
ac	-9.09772
▁fact	-9.09774
▁switched	-9.0986
▁Only	-9.09901
▁important	-9.09959
▁Some	-9.10113
com	-9.10174
▁bright	-9.10588
▁death	-9.10622
▁intact	-9.10666
▁hasn	-9.10748
▁lu	-9.10826
ee	-9.10886
▁wish	-9.10915
▁passage	-9.10921
▁cat	-9.11098
▁clean	-9.1128
▁different	-9.11365
im	-9.1171
▁details	-9.11712
ens	-9.11866
▁Who	-9.11867
▁actually	-9.11936
os	-9.1201
ure	-9.12032
▁middle	-9.12161
▁tower	-9.12184
▁Done	-9.1224
▁hundred	-9.12243
▁fine	-9.12261
▁bottom	-9.12285
▁Maybe	-9.12691
▁sh	-9.12943
▁descend	-9.1296
ng	-9.13057
▁pre	-9.13131
▁none	-9.13236
▁i	-9.13263
▁noise	-9.13278
▁further	-9.1343
▁sits	-9.13544
▁wasn	-9.13555
▁heard	-9.13564
▁Her	-9.1362
oo	-9.13645
▁center	-9.13674
▁gets	-9.13688
▁came	-9.13692
▁La	-9.13913
▁square	-9.13981
ff	-9.13981
▁river	-9.14005
if	-9.14019
ho	-9.14118
cu	-9.14189
▁entrance	-9.14238
dy	-9.14301
▁Dr	-9.14353
▁comp	-9.14619
vo	-9.14787
▁zero	-9.14841
▁current	-9.15028
processing	-9.15073
▁Putting	-9.151
▁dog	-9.15277
▁somewhere	-9.1537
▁Don	-9.1547
▁Check	-9.1558
▁food	-9.15792
string	-9.15918
▁sand	-9.15928
▁Ok	-9.16267
▁Un	-9.16317
▁escape	-9.1636
▁running	-9.16373
▁toward	-9.16409
▁six	-9.16506
▁leading	-9.1668
▁ca	-9.16698
▁pitch	-9.167
▁locations	-9.16703
▁carried	-9.16755
▁bring	-9.16777
▁either	-9.16798
ite	-9.16886
▁whether	-9.1693
▁quit	-9.17004
▁compass	-9.17019
▁save	-9.17038
▁dangerous	-9.17175
▁bo	-9.17219
▁died	-9.174
Well	-9.17412
▁human	-9.17445
▁lo	-9.1748
ec	-9.1751
▁obvious	-9.17614
▁taken	-9.17628
frog	-9.17715
▁position	-9.17831
▁leaves	-9.17867
▁listing	-9.17889
▁steps	-9.18001
▁h	-9.18002
▁puts	-9.181
▁system	-9.18112
▁Pushing	-9.18172
▁spell	-9.18217
▁vi	-9.18234
▁falls	-9.18262
▁Ca	-9.18297
▁inserting	-9.18343
ble	-9.18427
▁decide	-9.18448
va	-9.18609
▁dust	-9.18655
▁directions	-9.18662
▁stairs	-9.18662
▁interested	-9.18722
▁discover	-9.18961
▁U	-9.19008
▁manage	-9.19214
▁unlocked	-9.19253
▁random	-9.19291
▁pile	-9.19817
▁Mi	-9.19893
▁known	-9.1999
▁blow	-9.20032
▁smoke	-9.20106
▁imp	-9.20213
▁during	-9.20351
▁simple	-9.2047
▁blank	-9.20514
▁wonder	-9.20519
▁belong	-9.20564
▁obituary	-9.20607
▁fingers	-9.20641
▁die	-9.2076
ip	-9.20851
▁dragon	-9.20858
▁Inform	-9.20859
He	-9.20921
▁Carry	-9.20941
▁beyond	-9.20973
▁low	-9.20999
▁guess	-9.21203
"]	-9.21211
▁stay	-9.21254
▁Listing	-9.21291
▁sharp	-9.21371
uck	-9.21561
▁young	-9.21675
▁sitting	-9.2168
ical	-9.21745
▁describe	-9.21761
▁Cutting	-9.21801
▁hall	-9.21844
▁garden	-9.2222
▁Waving	-9.2223
ap	-9.2225
▁mirror	-9.22265
▁Supply	-9.22311
ily	-9.22455
▁child	-9.2264
▁None	-9.2267
▁stuck	-9.22685
▁Perhaps	-9.22701
▁:	-9.22926
▁Co	-9.22946
ile	-9.2295
da	-9.22997
min	-9.23113
▁matter	-9.23123
▁completely	-9.23263
▁maybe	-9.23325
▁force	-9.23358
▁revealing	-9.23428
▁round	-9.23507
▁scored	-9.2351
▁Le	-9.23526
▁having	-9.24017
▁Waking	-9.2405
▁likely	-9.24082
ud	-9.24173
▁playing	-9.24203
▁catch	-9.24228
▁corridor	-9.24282
▁sixteen	-9.24329
▁sight	-9.24354
▁believe	-9.24377
▁suppose	-9.24388
▁language	-9.24471
▁Why	-9.2452
red	-9.24535
mi	-9.24625
▁listening	-9.24657
▁loop	-9.24682
▁My	-9.24756
▁lift	-9.24805
▁except	-9.24865
▁cr	-9.24877
▁secret	-9.24886
▁silver	-9.24995
we	-9.25021
▁yellow	-9.25046
▁si	-9.25048
▁cover	-9.25088
▁cave	-9.25154
▁huge	-9.25188
▁ball	-9.25249
▁told	-9.2546
▁card	-9.25488
▁eating	-9.25508
▁board	-9.25567
▁realize	-9.25577
▁hot	-9.25681
▁TO	-9.25699
▁appear	-9.25774
ex	-9.25798
▁tunnel	-9.2581
▁allow	-9.25892
▁send	-9.25906
▁continue	-9.25931
▁finished	-9.25982
▁base	-9.25991
king	-9.26075
ca	-9.26331
▁Bo	-9.26355
▁mu	-9.26477
▁gold	-9.26538
▁complex	-9.26631
▁Every	-9.26667
▁thinking	-9.26671
▁thousand	-9.26728
▁al	-9.26729
▁*	-9.26761
▁ago	-9.26795
▁Transcripting	-9.26825
▁given	-9.27026
▁singing	-9.27032
▁menu	-9.27061
side	-9.27129
▁seat	-9.27221
▁arms	-9.27244
▁Ha	-9.27256
▁pronouns	-9.27303
▁starts	-9.27311
▁meanings	-9.27467
▁container	-9.27592
▁safe	-9.27719
▁restart	-9.27782
▁breath	-9.27822
ber	-9.27831
▁soft	-9.27857
▁reply	-9.28045
▁sleep	-9.28218
▁First	-9.28293
▁visited	-9.28298
RE	-9.28643
▁St	-9.28702
▁ti	-9.28721
▁leaving	-9.28841
▁otherwise	-9.28894
▁attention	-9.28937
▁Go	-9.29006
▁heart	-9.2902
▁supply	-9.29335
▁Ba	-9.29594
▁ex	-9.29824
▁kitchen	-9.29885
▁thin	-9.2997
ible	-9.30024
▁ri	-9.30105
ue	-9.30149
▁gr	-9.30165
Not	-9.30216
▁understood	-9.30236
▁announcement	-9.30275
light	-9.30343
▁impossible	-9.30387
▁throw	-9.30437
▁solid	-9.30439
V	-9.30633
ugh	-9.30721
ner	-9.30825
▁range	-9.30849
▁hint	-9.30864
ear	-9.30902
zz	-9.31131
▁swing	-9.31151
▁alone	-9.31215
▁po	-9.31353
▁shouldn	-9.31605
▁choice	-9.31638
▁bag	-9.31671
▁possessions	-9.31894
▁k	-9.31953
▁Mo	-9.32041
▁magic	-9.32127
▁Standard	-9.32268
▁smiles	-9.32339
We	-9.32388
nd	-9.32394
▁crack	-9.32422
▁pain	-9.32468
▁Grunk	-9.32631
rr	-9.32695
▁interesting	-9.32699
▁attached	-9.32703
▁gun	-9.32792
▁job	-9.32852
empty	-9.32858
▁train	-9.32892
ten	-9.32977
▁el	-9.32989
▁passes	-9.33099
▁men	-9.331
hi	-9.33117
▁group	-9.33196
lic	-9.33216
fully	-9.33282
▁points	-9.33339
▁entries	-9.33352
▁barely	-9.33355
ub	-9.33394
▁Swearing	-9.33404
8	-9.33453
▁smile	-9.33593
▁distance	-9.33612
▁warm	-9.3362
▁moved	-9.33686
▁follow	-9.33702
▁Ho	-9.33704
▁especially	-9.33768
▁burning	-9.33813
▁source	-9.3382
▁opens	-9.33846
con	-9.33852
▁iron	-9.33907
ence	-9.34109
▁hallway	-9.34253
ped	-9.34312
▁Po	-9.3446
▁screen	-9.34575
▁address	-9.34602
▁normal	-9.34616
▁doorway	-9.34671
▁snow	-9.34745
▁respond	-9.34815
▁ch	-9.34931
▁land	-9.34956
▁saw	-9.35009
der	-9.35102
▁handle	-9.35237
▁city	-9.35281
▁grass	-9.35322
▁stick	-9.35331
▁map	-9.35339
uff	-9.35409
ig	-9.3545
▁closer	-9.3561
▁turning	-9.35724
▁cross	-9.35761
▁nor	-9.36316
▁closing	-9.36359
▁Room	-9.36365
▁dropping	-9.36389
▁J	-9.36441
ple	-9.36547
▁sentence	-9.36571
mm	-9.36636
▁Setting	-9.36726
▁late	-9.36973
▁una	-9.37035
ru	-9.37616
▁consider	-9.37632
▁Lo	-9.37897
▁suit	-9.38036
▁initial	-9.38037
▁written	-9.38079
▁support	-9.3816
lu	-9.38349
▁writing	-9.38515
▁forward	-9.38539
by	-9.38581
▁today	-9.38631
▁glow	-9.3867
▁w	-9.38673
▁Try	-9.38719
▁reading	-9.38778
▁pulling	-9.38784
▁4	-9.3882
time	-9.38932
▁living	-9.39015
▁finally	-9.39051
▁travel	-9.39064
ice	-9.39076
▁twenty	-9.39283
▁match	-9.39432
▁carefully	-9.39439
▁beautiful	-9.39448
int	-9.39851
▁eight	-9.39977
▁information	-9.40354
▁scope	-9.40478
▁attacking	-9.40487
▁beneath	-9.40502
▁present	-9.40563
▁searching	-9.40621
▁banner	-9.40782
j	-9.40803
que	-9.40927
rs	-9.40964
▁fast	-9.4106
▁shape	-9.41159
▁ring	-9.4116
▁town	-9.41183
▁telling	-9.41259
▁stops	-9.41387
▁y	-9.41514
[	-9.41552
▁virtual	-9.41622
▁chamber	-9.41628
▁crowd	-9.41688
▁Ro	-9.41747
top	-9.41792
▁moving	-9.41867
▁fear	-9.41954
▁Lock	-9.41989
▁sounds	-9.41992
▁offer	-9.42094
▁mildly	-9.42155
▁su	-9.42312
▁fish	-9.42355
▁refer	-9.42359
▁attack	-9.42376
Your	-9.42402
ight	-9.42574
ER	-9.42838
▁effect	-9.42846
let	-9.42993
▁chest	-9.43192
cl	-9.43201
▁station	-9.43226
▁guy	-9.43272
▁anyone	-9.43348
si	-9.43436
▁answers	-9.43567
▁reads	-9.43571
▁copy	-9.4359
▁lying	-9.4361
▁filled	-9.43717
▁pocket	-9.43729
▁smooth	-9.44018
like	-9.44102
▁windows	-9.44152
▁asked	-9.44267
▁sink	-9.44277
▁wheel	-9.44421
▁true	-9.44544
▁minutes	-9.44567
▁nearby	-9.44614
▁legs	-9.44842
Can	-9.44985
▁remains	-9.44988
▁roof	-9.45124
▁Even	-9.45214
sion	-9.45215
▁obscenely	-9.45237
▁useful	-9.45273
mit	-9.45331
▁skin	-9.45369
▁mention	-9.45458
▁smells	-9.45467
▁hit	-9.45587
but	-9.45778
▁finding	-9.45824
▁apply	-9.45845
▁boy	-9.45886
▁friend	-9.45898
▁[3	-9.45927
▁robot	-9.46178
▁Would	-9.46199
▁fi	-9.46229
▁lower	-9.46241
▁seven	-9.46253
▁cool	-9.46288
qui	-9.46303
▁chance	-9.46372
▁mess	-9.46526
▁plastic	-9.46531
hasnt	-9.46581
▁brown	-9.46704
▁cabinet	-9.46776
▁count	-9.46827
▁former	-9.46863
▁tu	-9.46901
ave	-9.46913
▁exceed	-9.4702
▁John	-9.47125
▁objectloop	-9.47153
▁music	-9.47169
▁children	-9.47364
▁money	-9.47368
▁supporter	-9.47384
▁clothing	-9.4761
ial	-9.47661
▁sword	-9.47698
▁fun	-9.47699
▁sequence	-9.47902
▁earth	-9.48068
tion	-9.48132
▁verify	-9.48199
▁level	-9.48328
▁array	-9.48444
=	-9.4854
▁swim	-9.48569
▁worth	-9.48624
▁stream	-9.48703
▁r	-9.48758
▁trail	-9.48831
our	-9.48914
▁twice	-9.48927
▁author	-9.48927
▁ready	-9.48982
▁Con	-9.49013
cannot	-9.49073
▁device	-9.4936
▁times	-9.49369
▁state	-9.49383
for	-9.49474
▁Da	-9.4949
▁aware	-9.49611
ew	-9.49657
▁sir	-9.49934
▁turned	-9.50093
▁hatch	-9.50194
▁truth	-9.50208
pp	-9.50386
▁pattern	-9.50393
▁passed	-9.50405
ING	-9.50405
▁working	-9.50459
▁counter	-9.50552
▁smelling	-9.50628
▁pit	-9.51011
▁loose	-9.51021
▁parts	-9.51033
▁ladder	-9.51196
▁hat	-9.51269
▁whose	-9.51275
▁faint	-9.51503
▁become	-9.51511
▁waking	-9.51573
▁Br	-9.51624
pa	-9.51763
▁pulls	-9.51865
▁coat	-9.51946
▁finger	-9.52024
bi	-9.52101
▁however	-9.52226
▁pi	-9.52247
▁Mar	-9.52253
AR	-9.52288
▁basic	-9.52434
▁du	-9.52437
▁5	-9.5253
che	-9.52538
▁lit	-9.52581
Yes	-9.52774
There	-9.52801
▁doubt	-9.52825
▁climbing	-9.52846
▁library	-9.52884
▁concealed	-9.52898
▁neck	-9.52916
▁IF	-9.53009
▁simply	-9.53011
ld	-9.53049
▁lamp	-9.53378
▁field	-9.53389
▁vehicle	-9.5339
This	-9.53397
▁leg	-9.53419
▁statue	-9.53456
▁fa	-9.53584
▁war	-9.53767
▁pen	-9.53797
▁These	-9.53883
▁il	-9.53898
▁father	-9.53972
▁ra	-9.54017
▁days	-9.54124
J	-9.54215
▁contains	-9.54334
▁remain	-9.54401
▁entire	-9.54467
▁mother	-9.54488
▁live	-9.5475
But	-9.54813
▁flat	-9.54974
▁Pa	-9.54981
▁coffee	-9.54988
▁store	-9.54994
▁Lornedei	-9.55116
▁Game	-9.55324
▁kill	-9.55331
use	-9.55486
▁que	-9.55529
▁inter	-9.55616
▁dry	-9.55717
▁started	-9.55718
tra	-9.5576
▁couple	-9.55764
mer	-9.55765
▁condition	-9.55805
▁exiting	-9.55807
▁suitable	-9.56139
▁slip	-9.56175
▁mountain	-9.56205
▁business	-9.56284
▁Report	-9.56302
▁nearly	-9.56485
▁Sp	-9.56542
▁choose	-9.56546
▁difficult	-9.56808
▁feels	-9.56854
og	-9.56883
▁avoid	-9.56939
ably	-9.56962
▁God	-9.57082
land	-9.57199
ron	-9.57375
▁bare	-9.57582
▁pour	-9.57644
▁backdrop	-9.57748
▁notable	-9.57771
▁steel	-9.57796
▁dial	-9.57885
▁bridge	-9.57995
▁shakes	-9.58027
▁sleeping	-9.58031
▁color	-9.58062
▁appearance	-9.58147
char	-9.58244
▁te	-9.5825
▁pair	-9.58295
▁showing	-9.58303
▁engine	-9.58328
▁please	-9.5834
▁hints	-9.58381
▁bl	-9.58388
ach	-9.58408
▁frame	-9.58589
ack	-9.58807
▁unlocking	-9.58828
▁YOU	-9.58832
▁pe	-9.58865
▁included	-9.58922
so	-9.59046
▁RESTORE	-9.59063
val	-9.5925
▁containing	-9.59259
▁swearing	-9.59285
▁problem	-9.5937
▁length	-9.59544
▁ta	-9.59576
▁school	-9.59601
▁animate	-9.5967
bb	-9.59841
▁hang	-9.59861
▁speak	-9.60096
▁beg	-9.60102
▁loud	-9.60123
▁m	-9.60144
vent	-9.60287
▁Al	-9.60318
▁mi	-9.60331
▁phone	-9.60373
▁rep	-9.60397
▁waves	-9.60413
▁stack	-9.60465
▁pool	-9.60506
ga	-9.60664
▁teeth	-9.60757
port	-9.60918
fl	-9.60987
▁easily	-9.61028
▁heat	-9.61073
ound	-9.61105
▁fe	-9.61167
▁Qu	-9.61186
▁snippet	-9.61233
▁listen	-9.61265
unknown	-9.61272
▁certain	-9.61377
▁IN	-9.61387
▁animal	-9.6139
▁shadow	-9.61447
▁chain	-9.61453
▁happen	-9.61572
▁Se	-9.61649
▁quick	-9.61669
den	-9.61689
routine	-9.61965
▁painting	-9.62165
ric	-9.62287
▁sale	-9.62318
▁setting	-9.62341
▁achieved	-9.62411
▁drive	-9.62421
▁pieces	-9.62482
▁Frank	-9.6256
ak	-9.62603
men	-9.62766
▁went	-9.628
▁includes	-9.62811
ious	-9.62813
▁Getting	-9.629
▁th	-9.62908
▁Ra	-9.62936
▁Th	-9.62953
▁Di	-9.62962
So	-9.63059
▁unlikely	-9.63071
▁knife	-9.63102
▁Have	-9.63104
ries	-9.63213
▁clock	-9.63262
▁cla	-9.63273
▁picture	-9.63445
▁nose	-9.63558
▁cable	-9.63589
▁letter	-9.63644
number	-9.63649
▁hidden	-9.63714
▁del	-9.63735
▁region	-9.63744
▁straight	-9.63857
▁thirty	-9.63944
▁myself	-9.63982
▁horse	-9.64233
▁disappears	-9.6442
▁somehow	-9.64554
▁ENTER	-9.6458
▁reaction	-9.6468
cr	-9.64735
▁ice	-9.64807
▁odd	-9.64809
▁foolish	-9.64872
▁model	-9.64911
▁Tell	-9.6505
▁minute	-9.65115
▁determine	-9.6522
▁meet	-9.65286
▁quiet	-9.65525
▁drawer	-9.65571
▁sta	-9.65614
iv	-9.65741
▁Failed	-9.65793
▁hurt	-9.65793
▁wanted	-9.6587
▁bi	-9.659
Do	-9.65994
▁wire	-9.66017
ever	-9.66018
▁"[	-9.66026
▁events	-9.6606
▁Li	-9.6606
▁allowed	-9.66065
▁fr	-9.66293
▁coin	-9.66316
▁nine	-9.66356
ah	-9.6642
▁hanging	-9.66503
gi	-9.6664
▁effort	-9.6673
▁throwing	-9.66891
If	-9.66915
▁slow	-9.66942
▁cast	-9.67007
gg	-9.67083
▁win	-9.67148
▁cell	-9.67185
my	-9.67264
▁lose	-9.67382
▁perfect	-9.6741
ze	-9.67421
And	-9.67432
▁Although	-9.67531
▁rocks	-9.67776
▁requesting	-9.67815
ier	-9.67868
ab	-9.67962
▁clearly	-9.67979
fe	-9.68025
▁comma	-9.68199
▁grey	-9.68347
▁fifty	-9.68483
▁recognise	-9.68483
▁unfortunately	-9.68664
ther	-9.68723
▁took	-9.68754
▁following	-9.68765
are	-9.68778
▁slot	-9.68805
▁column	-9.68845
▁pot	-9.68905
▁conversation	-9.69075
▁year	-9.69087
▁regex	-9.69227
▁receive	-9.69298
ative	-9.693
▁pay	-9.69369
▁locking	-9.69576
▁star	-9.69581
room	-9.69713
ep	-9.69739
▁pardon	-9.69819
▁hangs	-9.69936
▁machinery	-9.69988
ey	-9.69997
▁reveal	-9.7
▁Nelson	-9.70044
board	-9.70116
▁fifteen	-9.70119
not	-9.70317
▁twelve	-9.70344
ations	-9.70356
▁image	-9.70578
▁activity	-9.70644
old	-9.70693
▁entered	-9.70736
▁trouble	-9.70795
▁fix	-9.70833
▁often	-9.70894
▁serial	-9.70954
gen	-9.71021
▁burn	-9.71025
▁Pro	-9.71025
▁books	-9.71061
▁certainly	-9.71166
▁ridiculous	-9.71249
ger	-9.71267
▁drinking	-9.71364
▁plate	-9.71414
▁hello	-9.7153
Don	-9.71566
work	-9.71575
IN	-9.71601
▁ear	-9.71629
ank	-9.71633
tain	-9.71688
▁Taken	-9.71856
▁easy	-9.71934
ning	-9.71985
LE	-9.72025
▁Trying	-9.72025
ual	-9.72188
ned	-9.72448
nes	-9.72491
▁pu	-9.72536
▁portable	-9.72659
▁Something	-9.72707
▁Of	-9.72707
lessly	-9.72711
▁bu	-9.7278
▁Release	-9.72853
▁hadn	-9.7291
▁Graham	-9.72932
▁although	-9.72933
▁rec	-9.72957
▁expect	-9.73111
▁va	-9.73187
▁draw	-9.73303
▁Turning	-9.73373
▁egg	-9.73509
▁Reading	-9.73567
▁Real	-9.73577
▁persuasion	-9.73626
▁undescribed	-9.73704
▁liquid	-9.73782
▁busy	-9.73787
ition	-9.73828
Hey	-9.73841
▁boat	-9.73862
▁hook	-9.73869
▁holds	-9.73891
▁resume	-9.73937
pl	-9.74031
▁poor	-9.74053
ba	-9.74106
▁kissing	-9.74151
▁deal	-9.74183
▁castle	-9.74257
lly	-9.74308
▁nondescript	-9.74329
▁Think	-9.74368
▁sub	-9.7447
▁printed	-9.74545
eg	-9.74594
har	-9.74679
▁Smell	-9.74798
▁strip	-9.74822
▁moves	-9.75044
▁pushed	-9.75088
▁forty	-9.75098
▁par	-9.75178
▁crystal	-9.7527
▁firmly	-9.7534
ose	-9.7535
▁morning	-9.7559
OR	-9.7566
▁post	-9.75669
ED	-9.75727
▁knew	-9.75749
▁expression	-9.75912
▁grip	-9.75912
az	-9.75916
▁sheet	-9.75934
▁grab	-9.75972
▁shop	-9.76001
act	-9.76043
AN	-9.76044
▁QUIT	-9.76062
▁Suddenly	-9.76221
▁cu	-9.76227
▁dance	-9.76285
▁pop	-9.7629
▁fence	-9.76327
▁cliff	-9.7638
▁shake	-9.76434
▁gi	-9.76464
▁platform	-9.7654
▁nerve	-9.76542
brief	-9.76564
▁tied	-9.76638
ign	-9.76651
▁Na	-9.76692
▁pa	-9.76725
▁mist	-9.76767
▁roll	-9.76769
▁afraid	-9.7686
▁Opening	-9.76872
▁pri	-9.76872
▁among	-9.769
▁explain	-9.7694
ingly	-9.77017
▁weight	-9.77043
bu	-9.77101
Oops	-9.77127
▁lab	-9.77157
lar	-9.77174
▁pm	-9.77188
▁herself	-9.77256
▁leather	-9.77342
▁unnecessary	-9.77423
ez	-9.77487
nce	-9.7756
▁Could	-9.77596
ments	-9.77666
▁Du	-9.77703
her	-9.77704
▁z	-9.77705
uc	-9.77725
za	-9.77737
▁rain	-9.77803
▁Here	-9.77826
▁fill	-9.77861
▁ABOUT	-9.7797
▁familiar	-9.77989
▁opened	-9.78048
▁fur	-9.78102
▁fly	-9.78186
▁cutting	-9.78188
ky	-9.78341
▁hum	-9.78419
▁anywhere	-9.78492
▁Let	-9.78495
▁replies	-9.78558
▁flowers	-9.78638
ise	-9.78704
ato	-9.78706
▁sniff	-9.78721
▁Darkness	-9.78729
▁entirely	-9.78731
▁Je	-9.78744
▁kid	-9.78752
▁Car	-9.78774
EN	-9.78835
▁drops	-9.78922
▁lever	-9.78939
row	-9.78942
▁topic	-9.78948
▁plan	-9.78975
▁cage	-9.78989
▁giant	-9.7899
▁fresh	-9.7899
▁cup	-9.79111
ib	-9.79197
▁finish	-9.79251
all	-9.79263
▁advance	-9.79294
▁Jumping	-9.79377
▁sweet	-9.79459
▁refers	-9.7948
ug	-9.79529
▁Vari	-9.796
▁art	-9.79728
▁Unfortunately	-9.79815
▁circle	-9.79853
ral	-9.79934
▁underneath	-9.79953
▁bird	-9.80007
of	-9.80009
▁painted	-9.80208
▁Going	-9.80244
verbose	-9.80256
▁Two	-9.80285
▁Save	-9.80318
▁dramatic	-9.80368
▁Captain	-9.80419
▁directly	-9.80486
▁North	-9.80487
▁grow	-9.80508
▁El	-9.80552
▁excepted	-9.80607
▁returned	-9.80609
ST	-9.80612
▁bedroom	-9.8064
▁plain	-9.80711
▁restore	-9.80904
▁gap	-9.8091
▁particular	-9.80918
▁security	-9.81118
▁blade	-9.81149
▁complete	-9.81184
▁wine	-9.81256
▁hill	-9.81266
▁owner	-9.81366
▁recognize	-9.81454
has	-9.81485
▁supposed	-9.81516
▁Ex	-9.81566
▁ancient	-9.81621
▁track	-9.81661
▁relates	-9.81675
▁Sh	-9.81823
▁wet	-9.81849
ade	-9.8185
▁na	-9.81874
▁holdall	-9.81892
In	-9.819
▁adventurers	-9.81903
▁tube	-9.82035
ev	-9.82047
nu	-9.82059
▁Throwing	-9.82127
▁However	-9.82145
▁rub	-9.82153
▁recorded	-9.82168
▁;	-9.82247
IT	-9.82277
▁sa	-9.82384
▁Attacking	-9.8255
▁suggestions	-9.82591
▁others	-9.82596
again	-9.82668
▁wanting	-9.82685
▁enjoy	-9.8272
ide	-9.82748
▁slide	-9.8277
▁require	-9.82819
▁jumping	-9.82856
▁section	-9.82865
▁thanks	-9.82906
▁unset	-9.82951
▁closes	-9.83135
▁Group	-9.83146
▁marked	-9.83156
superbrief	-9.83198
▁Quite	-9.83415
▁walking	-9.83453
▁Tast	-9.83466
▁eighteen	-9.83663
▁mar	-9.83668
cul	-9.83714
▁bug	-9.83723
▁click	-9.83745
▁dreadful	-9.83782
▁release	-9.83917
▁eleven	-9.83937
▁gas	-9.83985
▁Serial	-9.84006
▁join	-9.84032
▁cap	-9.84047
▁Most	-9.84079
▁crawl	-9.84089
▁route	-9.84095
▁minus	-9.84108
▁disc	-9.84123
▁dirt	-9.84137
▁looked	-9.84164
▁third	-9.84262
▁stares	-9.84267
▁En	-9.84323
▁gray	-9.84342
▁Climbing	-9.84434
▁absence	-9.84434
▁prompt	-9.84435
▁hours	-9.84495
▁bell	-9.84559
▁pet	-9.84651
▁approach	-9.84719
▁thirteen	-9.84781
▁Waiting	-9.84794
▁app	-9.84801
▁Giving	-9.84811
▁mine	-9.8483
▁bri	-9.84874
▁brass	-9.84913
▁Version	-9.84955
▁stare	-9.84996
▁suggest	-9.85012
▁Thinking	-9.85088
▁Dropped	-9.85128
▁Answer	-9.85303
▁spin	-9.85381
▁sensible	-9.85393
▁bowl	-9.85399
▁RESTART	-9.85477
▁purpose	-9.85603
Undo	-9.85719
Previous	-9.8574
▁silence	-9.85828
▁kick	-9.85848
▁fra	-9.85902
▁family	-9.85915
▁valid	-9.85916
▁page	-9.85946
▁Wa	-9.85969
▁plant	-9.86067
▁Ne	-9.86085
▁somewhat	-9.86123
ded	-9.86221
day	-9.86221
▁tight	-9.86245
▁x	-9.8626
▁fourteen	-9.86267
▁nods	-9.86278
▁Per	-9.86329
▁victorious	-9.86355
▁Burning	-9.86357
▁movement	-9.86359
▁twist	-9.8642
▁built	-9.86444
report	-9.86446
▁sixty	-9.86449
▁pause	-9.86464
▁oil	-9.86519
▁rhetorical	-9.86531
wi	-9.86537
▁Pulling	-9.86621
possessed	-9.8665
▁hide	-9.86663
▁Searching	-9.8671
▁happy	-9.86803
rd	-9.86812
▁requested	-9.86853
▁usually	-9.8688
▁add	-9.86884
▁stretch	-9.86885
▁squeezing	-9.86974
ress	-9.87002
▁everyone	-9.87023
▁shall	-9.87063
▁weapon	-9.87145
▁Violence	-9.87151
▁unimpressed	-9.87151
▁miss	-9.87266
nder	-9.87315
▁Entering	-9.8733
ions	-9.87357
▁lips	-9.87363
▁cause	-9.8738
▁tip	-9.874
▁Examining	-9.87507
▁Unlocking	-9.87507
▁hi	-9.87546
▁port	-9.87575
nn	-9.87583
▁seventy	-9.87601
▁prop	-9.87616
▁watching	-9.87666
ically	-9.87732
▁bank	-9.87829
How	-9.87942
▁divide	-9.87958
▁King	-9.87982
▁reaches	-9.88003
▁younger	-9.8803
▁evil	-9.88053
▁records	-9.88097
▁nineteen	-9.88134
▁wake	-9.88165
▁seventeen	-9.88223
▁Touching	-9.88224
▁touches	-9.88257
▁plainly	-9.88259
▁shows	-9.88277
▁Jo	-9.88363
▁crucial	-9.88403
▁undone	-9.88426
▁Gr	-9.8843
▁dexterity	-9.88493
lin	-9.88625
being	-9.8871
▁Removing	-9.88764
▁eighty	-9.88764
▁Wearing	-9.88765
▁protect	-9.88824
▁Writing	-9.88854
▁tail	-9.88911
▁ninety	-9.88948
gue	-9.88977
▁dropped	-9.88988
▁glance	-9.88997
▁Fa	-9.89023
▁lights	-9.89024
▁Consult	-9.89035
ces	-9.89108
▁RETURN	-9.89126
▁Closing	-9.89131
▁inedible	-9.89222
▁orange	-9.89226
▁ro	-9.89238
ock	-9.89255
ung	-9.89349
▁adventure	-9.89367
▁Showing	-9.89371
someone	-9.89395
▁toilet	-9.8946
cer	-9.89498
▁prayer	-9.89525
▁rat	-9.89535
▁apparently	-9.89565
BUG	-9.8958
▁bathroom	-9.89584
chi	-9.89795
▁age	-9.89837
▁Dropping	-9.89853
▁Sleeping	-9.89853
▁themselves	-9.89853
air	-9.8988
▁wash	-9.89929
▁guards	-9.89939
▁Through	-9.89944
▁dim	-9.89947
▁fills	-9.8995
▁Yes	-9.90026
▁Restore	-9.90036
▁colour	-9.90097
▁Eating	-9.90117
▁glowing	-9.90149
▁Since	-9.90203
▁cha	-9.90219
▁Saving	-9.90353
▁tie	-9.90384
▁picks	-9.90388
ium	-9.90398
▁shoulder	-9.90472
▁9	-9.90489
▁forth	-9.905
▁blind	-9.90587
▁Listening	-9.90588
▁hell	-9.90588
▁mark	-9.90605
sk	-9.90653
▁gently	-9.90693
▁Vi	-9.90709
Why	-9.90768
qu	-9.90802
ration	-9.90807
gr	-9.90819
▁ears	-9.90836
▁fairly	-9.90836
▁carved	-9.90864
▁elder	-9.90879
▁chi	-9.90926
▁invalid	-9.90933
▁serve	-9.90948
▁Drinking	-9.90955
▁Jack	-9.90979
▁str	-9.90987
▁worry	-9.91047
▁murder	-9.91047
▁cloud	-9.91154
▁rod	-9.91214
lan	-9.91224
▁Rubbing	-9.91234
▁needed	-9.91284
▁token	-9.91323
▁situation	-9.91324
▁Cl	-9.91417
▁refusal	-9.91417
▁pan	-9.91431
▁Whom	-9.91467
lor	-9.91546
▁moon	-9.91554
▁Kissing	-9.91603
▁Tying	-9.9161
▁dig	-9.91611
▁Squeez	-9.91695
▁Amusing	-9.91789
▁Verifying	-9.91882
AL	-9.91898
▁qua	-9.91899
▁Like	-9.91918
putting	-9.91987
▁branches	-9.92051
uch	-9.92055
▁Interpreter	-9.92068
▁Good	-9.92083
▁Ta	-9.92109
▁soul	-9.92116
ON	-9.92215
▁ge	-9.92215
ory	-9.9222
▁Restarting	-9.92255
▁Futile	-9.92349
▁verified	-9.92352
▁bear	-9.92387
▁stupid	-9.92442
▁routine	-9.92477
▁wi	-9.92498
CH	-9.92515
▁Swinging	-9.92536
▁drowsy	-9.92536
▁walks	-9.9267
▁NOT	-9.92674
nc	-9.92699
rk	-9.92785
▁knock	-9.92811
▁Exiting	-9.92882
▁dress	-9.9293
▁puzzle	-9.93072
▁scar	-9.93174
nserting	-9.93185
▁exist	-9.93188
▁inform	-9.933
▁whatever	-9.93305
▁total	-9.93364
▁waste	-9.93384
can	-9.93531
▁Starting	-9.93555
▁Buying	-9.93573
▁material	-9.93573
▁juggle	-9.93575
▁pin	-9.93651
▁remind	-9.93669
▁learn	-9.93672
▁Quittin	-9.93674
▁matching	-9.93773
▁mad	-9.93776
ches	-9.93827
du	-9.93857
▁AMUSING	-9.93857
▁Constructing	-9.93858
Command	-9.93869
▁Restoring	-9.93952
▁presence	-9.93953
▁trans	-9.93965
tting	-9.94002
▁thank	-9.94101
ef	-9.94101
▁golden	-9.94114
▁cur	-9.94142
▁strength	-9.94143
To	-9.94223
▁corrupt	-9.94246
▁spread	-9.9425
Since	-9.94259
▁corrected	-9.94291
▁elevator	-9.94429
▁son	-9.94515
▁shift	-9.94525
▁Moves	-9.9453
you	-9.94575
▁bolt	-9.94625
▁marble	-9.94632
▁closely	-9.94657
ized	-9.94717
▁lists	-9.94771
pro	-9.94825
▁brick	-9.94828
▁barriers	-9.94888
▁succession	-9.9493
▁falling	-9.94954
▁perfectly	-9.94979
▁village	-9.95004
▁ga	-9.95257
ship	-9.95284
▁sudden	-9.95286
▁brain	-9.95287
▁parameters	-9.95293
▁exits	-9.95328
▁ran	-9.95342
mplicitly	-9.95378
▁meant	-9.95384
▁By	-9.95404
vis	-9.9545
ken	-9.95508
▁data	-9.95567
▁variables	-9.95641
tes	-9.95657
▁throat	-9.95679
ook	-9.95775
▁results	-9.95811
well	-9.95859
ofclass	-9.95906
fo	-9.95933
▁killed	-9.95951
ters	-9.95965
▁Black	-9.95974
kin	-9.96091
▁torch	-9.96111
▁obviously	-9.96116
▁Sta	-9.96132
My	-9.96153
▁Miss	-9.9621
▁alive	-9.96324
▁courteous	-9.96359
▁adjust	-9.9636
▁j	-9.96376
▁parent	-9.96447
ball	-9.96449
▁works	-9.96587
▁result	-9.96616
▁fruitlessly	-9.96656
▁gaze	-9.9676
▁update	-9.96774
▁ni	-9.96784
▁Where	-9.96836
▁monster	-9.96847
▁changes	-9.96858
▁fight	-9.96888
2:	-9.96902
▁beside	-9.96906
tory	-9.96961
▁Removed	-9.97043
▁rises	-9.9706
create	-9.97071
▁[4	-9.97158
▁Fe	-9.97251
▁arch	-9.97316
▁tra	-9.97364
▁weak	-9.97428
ened	-9.97474
▁equipment	-9.97535
▁master	-9.9754
ina	-9.97819
▁kiss	-9.97958
ea	-9.97986
raw	-9.98086
Using	-9.98174
Comment	-9.98223
▁accept	-9.98228
called	-9.98331
ob	-9.98376
▁recording	-9.98489
▁pushes	-9.98566
▁provokes	-9.98571
▁beat	-9.98626
▁lid	-9.98652
▁tongue	-9.98728
▁rough	-9.98734
entering	-9.98781
ran	-9.98783
00	-9.98811
▁silent	-9.98824
▁es	-9.98836
▁shiny	-9.98925
▁speed	-9.98927
▁blink	-9.98937
▁super	-9.9899
▁apart	-9.99041
ake	-9.99041
▁Interactive	-9.99225
▁gather	-9.99232
unk	-9.99235
▁Singing	-9.9929
▁staircase	-9.99425
▁carpet	-9.99527
▁shadows	-9.99615
zy	-9.99622
▁felt	-9.99629
▁tin	-9.99642
▁dear	-9.99642
▁bother	-9.9971
▁drift	-9.99732
▁demon	-9.99783
▁deck	-9.99827
▁Holmes	-9.99828
▁answering	-9.99955
▁dirty	-9.99987
▁brief	-10.0005
▁seed	-10.0005
▁tr	-10.0008
▁abominable	-10.0013
▁ordinary	-10.0013
▁alarm	-10.0014
pu	-10.0039
▁shelves	-10.0043
▁interpreters	-10.005
▁ignore	-10.0061
▁experience	-10.0064
ler	-10.0064
▁link	-10.0065
house	-10.0082
nch	-10.0091
▁shaft	-10.0094
▁beginning	-10.0099
▁original	-10.0103
▁imagine	-10.0105
▁luck	-10.0109
▁returns	-10.011
▁Clarify	-10.0125
▁tasting	-10.0125
▁distant	-10.0125
fa	-10.0125
▁tank	-10.0126
▁dr	-10.0129
ki	-10.0136
▁staring	-10.0157
considering	-10.0167
▁removing	-10.0176
used	-10.0181
▁South	-10.0187
▁band	-10.0192
worn	-10.0195
▁usual	-10.02
standing	-10.0203
af	-10.0204
▁Pu	-10.0212
▁jar	-10.0214
▁timed	-10.0215
wn	-10.0216
▁component	-10.0217
▁term	-10.0219
▁roar	-10.0222
▁becomes	-10.0227
▁switches	-10.0229
ix	-10.0237
▁charge	-10.0238
▁ahead	-10.0249
head	-10.0253
ently	-10.0256
▁games	-10.0257
ism	-10.0264
▁calm	-10.0267
▁output	-10.027
CK	-10.0272
▁due	-10.0278
▁pipe	-10.0282
ail	-10.0291
rn	-10.0292
▁tells	-10.0295
▁mis	-10.0303
▁Man	-10.031
▁rubbing	-10.0311
▁symbol	-10.0311
ES	-10.0311
tive	-10.0318
lf	-10.0321
▁common	-10.0326
ities	-10.0326
▁massive	-10.0334
RO	-10.0339
▁li	-10.034
▁wander	-10.0341
▁harm	-10.0348
▁weren	-10.035
▁Rule	-10.0352
▁asleep	-10.0353
▁song	-10.0353
▁NON	-10.0355
▁visiting	-10.0358
▁floating	-10.0359
▁internal	-10.0364
▁implicitly	-10.037
▁redisplay	-10.0374
▁police	-10.0393
▁focus	-10.0395
▁Sam	-10.0395
▁anymore	-10.0405
▁paint	-10.041
▁study	-10.0411
▁success	-10.0425
ction	-10.0426
press	-10.0429
▁sw	-10.0431
cle	-10.0438
ize	-10.0444
▁visibility	-10.0447
▁followed	-10.0449
▁scream	-10.0451
▁pale	-10.046
ley	-10.0468
▁perform	-10.0468
▁breeze	-10.0479
▁generator	-10.0479
▁awareness	-10.0483
▁beach	-10.0483
▁oak	-10.0483
▁tea	-10.0485
▁Entire	-10.049
▁tries	-10.049
▁led	-10.0496
▁treasure	-10.05
hen	-10.0503
nel	-10.0504
▁shot	-10.0506
ome	-10.0509
OW	-10.0519
▁ocean	-10.0521
▁spider	-10.0522
aw	-10.0526
▁unknown	-10.0526
▁def	-10.0533
▁Once	-10.0534
▁damage	-10.0543
▁steep	-10.0543
ND	-10.055
▁purple	-10.0565
▁bay	-10.0566
▁Gra	-10.058
▁gave	-10.059
▁buy	-10.0591
▁Ja	-10.0591
▁seemed	-10.0596
▁stretches	-10.0596
▁Cr	-10.06
▁est	-10.0604
▁tired	-10.0613
▁tap	-10.0617
▁sides	-10.0619
▁park	-10.0628
▁everywhere	-10.0629
fitting	-10.0636
▁target	-10.0638
▁Type	-10.0638
▁comfortable	-10.0642
▁wings	-10.0644
▁Rules	-10.0648
au	-10.0657
▁hungry	-10.0662
▁lake	-10.0681
▁Sha	-10.0681
▁swinging	-10.0684
▁scratch	-10.0685
▁qui	-10.0685
▁Ru	-10.069
▁mask	-10.0707
▁Master	-10.0708
▁branch	-10.0717
▁reflect	-10.0731
▁War	-10.0737
net	-10.0742
▁build	-10.0746
▁Though	-10.0748
▁qu	-10.0751
▁bend	-10.0755
oon	-10.0756
▁hour	-10.0765
▁wolf	-10.0768
bed	-10.0779
▁powerful	-10.0784
▁friends	-10.0784
▁spend	-10.0788
▁candle	-10.0801
▁tend	-10.0805
ties	-10.0806
▁Bob	-10.0809
▁design	-10.0812
▁brush	-10.0818
▁10	-10.0818
▁ghost	-10.0824
▁spirit	-10.0824
▁temp	-10.0824
▁bow	-10.0827
▁centre	-10.0828
▁8	-10.0832
▁dull	-10.0832
address	-10.0837
▁doctor	-10.0863
▁nest	-10.0865
ang	-10.0865
▁named	-10.0868
▁cries	-10.0871
▁cube	-10.0872
▁slides	-10.0873
▁laughs	-10.0873
▁disturb	-10.0879
set	-10.0879
▁seconds	-10.0886
▁quantifi	-10.089
▁wound	-10.0892
▁ru	-10.0896
▁Street	-10.0901
Yeah	-10.0903
car	-10.0903
▁wild	-10.0904
gy	-10.0908
▁spring	-10.0917
▁practical	-10.0925
▁fo	-10.0932
▁Watson	-10.0934
ire	-10.0938
▁mud	-10.0944
▁See	-10.0944
▁indefinite	-10.0945
Please	-10.0947
▁flash	-10.095
mic	-10.0952
▁useless	-10.0963
▁stones	-10.0964
▁lady	-10.0964
▁energy	-10.0968
▁npc	-10.0968
▁James	-10.0968
▁knows	-10.0969
▁quant	-10.097
▁briefly	-10.0979
▁brother	-10.0979
jo	-10.0999
nar	-10.1003
▁Best	-10.1003
▁letters	-10.1005
▁catches	-10.1012
▁cor	-10.1019
oc	-10.1028
▁shelf	-10.1033
serv	-10.1036
▁acc	-10.105
tu	-10.1051
▁sick	-10.1053
▁Great	-10.1056
ified	-10.1057
▁corpse	-10.1057
▁interior	-10.1057
▁Lord	-10.1058
oth	-10.1059
▁blocks	-10.1064
▁Look	-10.1064
▁context	-10.1068
▁Handl	-10.1069
▁scent	-10.1074
▁bur	-10.1081
Choosing	-10.1091
▁quietly	-10.11
▁chronological	-10.1102
▁hits	-10.1103
▁duck	-10.1121
▁ledge	-10.1124
mate	-10.1125
▁planet	-10.114
cept	-10.1145
▁tear	-10.1145
▁possibly	-10.1147
▁uniform	-10.1147
▁task	-10.1149
▁Did	-10.1151
ane	-10.1157
stone	-10.1163
▁features	-10.1169
▁flame	-10.1181
▁keys	-10.1182
▁week	-10.1188
▁yard	-10.12
▁shock	-10.1206
▁provided	-10.1207
▁numbered	-10.121
▁sibling	-10.1216
ute	-10.1217
av	-10.1218
▁comment	-10.1229
▁melt	-10.1242
▁19	-10.1254
▁youngest	-10.1256
▁peer	-10.1259
▁damp	-10.1266
hoo	-10.127
▁Digging	-10.1273
▁contact	-10.1273
▁cavern	-10.1274
through	-10.1275
low	-10.1288
lie	-10.129
▁hate	-10.1291
▁boss	-10.1292
SCII	-10.1296
▁apologise	-10.1307
pen	-10.1318
▁evidence	-10.1319
▁thrown	-10.1329
▁preposition	-10.1331
▁fan	-10.1341
▁surrounded	-10.1347
▁rip	-10.1348
▁papers	-10.1349
right	-10.1351
▁While	-10.1356
▁particularly	-10.1358
▁Mon	-10.1364
▁cry	-10.1364
▁angry	-10.1365
▁general	-10.138
▁tying	-10.1389
▁rise	-10.1391
][	-10.1398
▁party	-10.1399
▁project	-10.14
▁Fi	-10.1415
▁eldest	-10.1423
▁ver	-10.1424
▁undo	-10.1431
ork	-10.1432
▁mass	-10.1433
▁dec	-10.1438
▁early	-10.1442
▁scoring	-10.1447
held	-10.1449
mar	-10.145
ker	-10.1451
ls	-10.1455
▁fair	-10.1457
▁camp	-10.1462
▁sweat	-10.147
▁slight	-10.1471
▁Hall	-10.1474
▁tonight	-10.1476
▁byte	-10.1479
▁dressed	-10.1481
van	-10.1486
Read	-10.1489
▁sur	-10.1493
▁caught	-10.1493
▁heap	-10.15
paragraph	-10.1511
▁met	-10.1511
▁spill	-10.1517
▁silently	-10.1529
thing	-10.153
▁grabs	-10.1536
rm	-10.1539
▁pack	-10.154
▁tape	-10.154
▁gnome	-10.154
▁pleasant	-10.154
They	-10.1541
▁rid	-10.1547
▁cons	-10.1552
attribute	-10.1558
▁fla	-10.1559
▁western	-10.1564
objectloop	-10.157
▁service	-10.1576
▁Does	-10.1597
▁worse	-10.16
▁pulled	-10.1604
▁[5	-10.1605
med	-10.1606
▁shouts	-10.1612
ient	-10.1618
▁tri	-10.1618
▁photo	-10.1635
ockclimbing	-10.1635
notin	-10.1636
cy	-10.1654
▁natural	-10.1655
▁brought	-10.1659
▁Ti	-10.1661
▁beast	-10.1664
▁starting	-10.1664
des	-10.1672
▁sighs	-10.1704
▁cock	-10.1704
▁example	-10.1707
rate	-10.171
▁sad	-10.1711
▁mostly	-10.1713
▁End	-10.1713
off	-10.1717
▁squeeze	-10.1719
gli	-10.1725
q	-10.1725
▁process	-10.1726
▁cord	-10.1731
cade	-10.1732
▁upper	-10.1732
ink	-10.1735
▁Mu	-10.1739
▁grand	-10.1744
▁Action	-10.1746
▁tre	-10.1752
▁closet	-10.1753
▁col	-10.1755
Ah	-10.1756
▁forever	-10.1765
▁investigate	-10.1767
▁leap	-10.1768
▁designed	-10.1772
▁forget	-10.1775
▁OF	-10.1775
▁Su	-10.1788
▁Ri	-10.1788
▁curious	-10.1791
ja	-10.18
▁future	-10.1803
▁collect	-10.1804
▁lay	-10.1806
▁questions	-10.1812
▁unusual	-10.1815
▁motion	-10.1821
▁baby	-10.183
▁fu	-10.1833
ero	-10.1837
▁storm	-10.1839
▁amount	-10.1841
ando	-10.1843
Sub	-10.1852
▁indicate	-10.1852
▁visit	-10.1859
▁regular	-10.1864
▁supporters	-10.1867
▁shore	-10.1876
▁screams	-10.1879
▁surprise	-10.188
▁flesh	-10.1888
▁switchable	-10.1892
▁inches	-10.1896
▁double	-10.19
▁bound	-10.1904
▁nu	-10.1904
cia	-10.1905
lit	-10.1909
▁downward	-10.1921
▁wife	-10.1926
▁connect	-10.1931
▁lines	-10.1932
▁openable	-10.1932
▁height	-10.1937
▁flower	-10.1937
▁Error	-10.1947
▁cook	-10.1947
▁snake	-10.1949
ctor	-10.195
block	-10.1951
ay	-10.1955
pped	-10.1956
shing	-10.1959
▁clouds	-10.196
ET	-10.1965
▁Sir	-10.1967
▁smaller	-10.1972
bs	-10.1973
mark	-10.1979
▁snaps	-10.1982
▁trust	-10.1986
▁cart	-10.1991
dic	-10.1995
▁New	-10.1997
▁typing	-10.1998
AS	-10.1999
▁spit	-10.2001
atch	-10.2003
▁extend	-10.2003
▁destroy	-10.201
▁battle	-10.2011
▁trunk	-10.2011
▁ride	-10.2014
▁vision	-10.2014
▁produce	-10.2018
▁stomach	-10.2023
▁para	-10.2028
▁FULL	-10.2036
▁fat	-10.2039
▁trip	-10.2041
▁Sa	-10.205
▁spa	-10.206
▁vine	-10.2069
▁patch	-10.2074
▁initialise	-10.2074
UN	-10.2081
▁terrible	-10.2085
rus	-10.2086
▁Play	-10.2088
▁laugh	-10.2088
▁Pi	-10.2094
ump	-10.21
▁aside	-10.2103
bra	-10.2109
▁sturdy	-10.2123
▁bars	-10.2123
read	-10.2124
▁flying	-10.2126
▁shirt	-10.213
▁pink	-10.2131
ors	-10.2136
▁rich	-10.2139
LO	-10.2139
▁Pe	-10.2149
ene	-10.2151
rri	-10.2154
▁GO	-10.2156
▁detail	-10.2156
▁vaguely	-10.2157
▁Ed	-10.2157
▁vast	-10.2174
ka	-10.2175
▁flight	-10.2176
▁apartment	-10.2177
ash	-10.2184
▁ON	-10.2189
▁rolls	-10.219
▁evening	-10.2197
▁East	-10.22
▁pole	-10.2216
▁tent	-10.2218
eep	-10.2219
▁program	-10.2224
▁flip	-10.2226
Now	-10.223
▁growing	-10.2235
▁sail	-10.2241
▁landing	-10.2245
member	-10.2254
▁aim	-10.2256
▁quarter	-10.226
▁rank	-10.2262
form	-10.2267
▁clearing	-10.2267
▁connection	-10.2267
▁Get	-10.2269
ette	-10.2276
▁RE	-10.2276
▁Someone	-10.2278
given	-10.228
ture	-10.2282
▁unit	-10.2284
wood	-10.2285
▁trap	-10.2288
▁sal	-10.2292
She	-10.2294
▁indeed	-10.2301
▁feed	-10.2305
▁prevent	-10.2311
▁Professor	-10.2312
10	-10.2315
▁necessary	-10.2325
▁awake	-10.2331
▁surprised	-10.2332
▁opposite	-10.2338
▁knob	-10.2338
▁fiction	-10.236
▁Glulx	-10.2376
▁local	-10.2398
▁structure	-10.2401
▁keeps	-10.2404
▁gl	-10.2405
▁des	-10.2407
▁Bar	-10.2411
▁article	-10.2414
▁eastern	-10.2415
▁pirate	-10.2416
▁20	-10.2424
▁created	-10.2425
▁troll	-10.2427
▁furniture	-10.2427
▁Better	-10.2427
▁ski	-10.2434
rous	-10.2434
▁heading	-10.2438
▁grave	-10.2442
▁extends	-10.2448
west	-10.2449
▁settle	-10.2455
bl	-10.2459
▁crate	-10.2461
▁nail	-10.2462
▁LOOK	-10.2466
▁actor	-10.2474
▁devices	-10.2477
▁glances	-10.2485
▁Cha	-10.2489
▁Inside	-10.2507
▁extremely	-10.251
▁buttons	-10.2511
▁stars	-10.2517
ery	-10.2519
▁buying	-10.2521
zi	-10.2521
▁mix	-10.2523
▁fruit	-10.2543
▁UNDO	-10.2544
▁poison	-10.2544
▁Dis	-10.2545
▁calls	-10.255
▁appreciate	-10.2551
▁bench	-10.2556
▁blast	-10.2559
lost	-10.256
▁shrugs	-10.2562
▁cabin	-10.2563
▁gra	-10.2564
▁alien	-10.2571
▁cloth	-10.2572
▁beam	-10.2572
han	-10.258
▁fallen	-10.2583
▁compartment	-10.2583
uring	-10.2606
▁skull	-10.2609
▁arrive	-10.2613
▁discovered	-10.2614
▁Non	-10.2617
cc	-10.2623
▁swings	-10.2623
gar	-10.2624
▁trick	-10.2627
▁camera	-10.2628
▁struggle	-10.2635
▁torn	-10.2636
illa	-10.2644
▁powder	-10.2648
▁flies	-10.2648
ov	-10.265
Reaching	-10.2652
▁ID	-10.2654
▁Ju	-10.2658
rse	-10.2663
▁200	-10.2676
▁Other	-10.2678
ark	-10.2689
▁suck	-10.2691
▁Gu	-10.2695
hold	-10.2698
▁drain	-10.2703
▁ju	-10.2706
▁West	-10.2709
Setting	-10.2716
▁File	-10.2719
lock	-10.2723
inside	-10.2728
▁Fiction	-10.2728
▁sent	-10.2745
▁needs	-10.2751
art	-10.2764
▁Another	-10.277
▁implicit	-10.2774
▁bubble	-10.2781
▁bath	-10.2789
▁public	-10.2795
▁personal	-10.2806
▁careful	-10.2808
.[	-10.2816
elle	-10.2821
▁mid	-10.2823
und	-10.2824
▁Hints	-10.2833
▁hollow	-10.2835
bit	-10.2839
▁hiding	-10.2848
▁consulting	-10.285
▁definitely	-10.285
ggle	-10.2856
▁Fl	-10.2863
Go	-10.2872
▁chairs	-10.2879
▁mor	-10.2885
▁tool	-10.2902
!!!	-10.2904
▁Inspector	-10.2908
▁kept	-10.2915
▁sundry	-10.2915
▁disappear	-10.2922
▁rows	-10.2923
▁collapse	-10.2924
▁slam	-10.2929
ease	-10.2931
▁chip	-10.2932
▁belt	-10.2936
▁enormous	-10.2942
▁simultaneous	-10.2942
▁silly	-10.2958
ray	-10.2961
▁react	-10.2968
AT	-10.2969
▁church	-10.2969
Sorry	-10.2973
CE	-10.2997
▁DO	-10.3019
Co	-10.3021
▁extra	-10.3022
▁larger	-10.3023
now	-10.3031
▁sat	-10.3034
▁pig	-10.3037
▁dusty	-10.3037
▁tightly	-10.3041
sta	-10.3045
▁bra	-10.3047
▁agree	-10.305
▁proper	-10.3051
ied	-10.3057
▁usefully	-10.3061
▁Che	-10.3062
▁characters	-10.3063
iz	-10.307
itch	-10.3075
▁animals	-10.3089
▁jewel	-10.31
▁hero	-10.3102
▁steam	-10.3106
▁meat	-10.3108
▁alley	-10.3109
▁Wi	-10.3111
bble	-10.3112
▁pos	-10.3115
▁bite	-10.312
▁respect	-10.312
▁overhead	-10.3131
qua	-10.3136
ura	-10.3139
▁Mark	-10.314
▁matches	-10.3143
▁?	-10.3143
▁quest	-10.3144
▁basket	-10.3148
▁soldier	-10.3148
ou	-10.3152
▁weird	-10.3162
angle	-10.3167
len	-10.3167
▁arrived	-10.3168
▁confused	-10.3176
▁helmet	-10.3176
▁fireplace	-10.3177
▁load	-10.3177
▁mission	-10.3185
▁spent	-10.3191
▁rubber	-10.3191
▁photograph	-10.3203
▁cheese	-10.3204
▁log	-10.3206
▁mentioned	-10.3209
▁Object	-10.3223
tan	-10.3225
-->	-10.3236
▁prove	-10.3237
▁Deep	-10.3237
▁chicken	-10.3245
▁scarcely	-10.3245
point	-10.3246
▁dish	-10.3259
fer	-10.3264
TH	-10.3264
cent	-10.3269
▁Earth	-10.3273
▁changing	-10.3273
▁flo	-10.3273
▁recently	-10.3275
▁solve	-10.3276
ati	-10.3285
▁organ	-10.3289
cap	-10.3298
▁Michael	-10.3301
▁!	-10.3312
▁monitor	-10.3315
▁shade	-10.3318
Hello	-10.332
zzle	-10.3326
---	-10.3329
▁shoot	-10.3334
▁king	-10.3337
ific	-10.3338
▁label	-10.3341
▁circular	-10.3343
▁stood	-10.3343
▁ambient	-10.3344
▁ce	-10.3349
▁surrounding	-10.3351
bar	-10.3352
▁direct	-10.3353
▁progress	-10.3358
▁couch	-10.3361
▁rose	-10.3363
▁pound	-10.3363
▁flames	-10.3363
▁Prince	-10.3364
▁picked	-10.3369
▁Gnome	-10.3372
fold	-10.3372
▁booth	-10.3373
▁cri	-10.3374
▁magical	-10.3375
▁stain	-10.3384
▁constant	-10.3387
▁Ch	-10.34
▁Inter	-10.3402
SE	-10.3406
▁English	-10.3414
▁balance	-10.3414
▁damn	-10.3415
▁Sc	-10.3425
▁described	-10.3428
▁grasp	-10.343
▁heads	-10.3432
▁glad	-10.3441
repetition	-10.3443
▁buildings	-10.3445
ale	-10.3446
▁bark	-10.3449
ature	-10.3449
UT	-10.3451
▁More	-10.3458
east	-10.3459
back	-10.3461
TER	-10.3465
par	-10.3466
ify	-10.3468
▁relax	-10.3471
ante	-10.3482
▁wrap	-10.3486
▁interactive	-10.3487
▁ya	-10.3492
▁Par	-10.3498
▁Tra	-10.3498
▁okay	-10.35
▁Joe	-10.3503
▁sunlight	-10.3504
▁grows	-10.3509
▁parse	-10.3511
▁Ah	-10.3511
▁noticed	-10.3521
▁tick	-10.3522
▁fer	-10.3529
▁Short	-10.3529
Just	-10.3536
ddle	-10.3536
stage	-10.3546
▁Block	-10.3547
▁moments	-10.3555
ado	-10.3562
key	-10.3566
▁serious	-10.3567
▁Tr	-10.3569
ware	-10.357
▁fades	-10.3571
▁suspect	-10.3572
▁scattered	-10.3573
wa	-10.3575
▁fails	-10.36
▁boulder	-10.3601
▁weather	-10.3601
▁changed	-10.3602
...)	-10.3602
▁crew	-10.3603
▁lick	-10.3608
▁Right	-10.3621
▁tears	-10.3626
Look	-10.3626
▁radio	-10.363
ending	-10.3637
▁poke	-10.364
▁blows	-10.3642
▁surely	-10.3648
▁Pr	-10.3651
▁tile	-10.3651
▁plants	-10.3657
▁gentle	-10.3657
▁screw	-10.3674
Re	-10.3675
▁covers	-10.3676
▁nature	-10.3677
▁headline	-10.3677
▁ob	-10.3685
self	-10.3689
▁detect	-10.3699
▁whisper	-10.3699
▁scrap	-10.3699
▁bones	-10.3704
ime	-10.3708
▁fist	-10.3717
▁similar	-10.3717
ada	-10.3721
▁ended	-10.3731
▁Emily	-10.3733
▁cop	-10.3746
▁General	-10.3747
▁managed	-10.3748
▁pod	-10.3754
▁happening	-10.3757
▁rusty	-10.376
▁pedestal	-10.3761
▁offset	-10.3763
▁woods	-10.3769
▁history	-10.377
▁northern	-10.3777
▁ill	-10.3787
▁worked	-10.3795
▁vent	-10.3799
▁guest	-10.3806
▁connected	-10.3807
▁paw	-10.3809
eek	-10.3814
▁rack	-10.3822
▁ticket	-10.3822
▁frozen	-10.385
Who	-10.3858
▁notes	-10.386
mid	-10.3864
gh	-10.3864
▁ruin	-10.3879
▁eventually	-10.388
aunt	-10.3888
▁budge	-10.3895
▁CO	-10.3907
ude	-10.3909
▁wa	-10.3909
▁barrel	-10.391
some	-10.3929
▁fell	-10.3931
word	-10.394
▁external	-10.394
▁credit	-10.394
▁accessibility	-10.394
▁desire	-10.3941
▁thoughts	-10.3945
▁angle	-10.3959
ection	-10.3969
▁blanket	-10.3976
AM	-10.3982
▁meaning	-10.399
▁dome	-10.399
nish	-10.3997
▁multi	-10.4006
▁rear	-10.4013
pect	-10.4014
▁misplaced	-10.4015
▁Still	-10.4015
▁sister	-10.4019
try	-10.4021
▁ref	-10.4027
▁root	-10.4035
▁dinner	-10.4045
▁women	-10.4046
▁spark	-10.4048
EL	-10.4052
▁Use	-10.4052
▁exclude	-10.406
▁steal	-10.406
▁Scene	-10.4061
▁tense	-10.4065
▁pointing	-10.4066
VER	-10.4072
▁filter	-10.4075
▁Besides	-10.4075
▁maze	-10.4078
Be	-10.4083
▁cow	-10.4085
▁Ga	-10.4089
▁generate	-10.4091
▁pat	-10.4091
▁Everything	-10.4092
Ma	-10.4103
gged	-10.4103
▁southern	-10.4106
pr	-10.4109
mbling	-10.412
▁mechanism	-10.4121
▁gain	-10.4122
▁wires	-10.4125
cro	-10.4125
__	-10.4132
hole	-10.4135
▁Thanks	-10.4141
▁Their	-10.4146
▁fool	-10.4153
▁Wo	-10.416
▁island	-10.4161
▁scan	-10.4165
fu	-10.4173
▁Finally	-10.4181
ica	-10.4192
book	-10.4201
▁Bi	-10.4203
▁web	-10.4208
▁accomplish	-10.4213
▁zombie	-10.4213
▁sphere	-10.4213
▁false	-10.4213
▁metallic	-10.422
▁sing	-10.4224
▁bill	-10.4228
▁shed	-10.423
▁plane	-10.4234
▁vol	-10.4239
▁pad	-10.4239
▁swallow	-10.4244
▁mistake	-10.4245
▁199	-10.4245
ai	-10.425
▁shell	-10.426
▁safety	-10.426
door	-10.427
▁Work	-10.4278
▁date	-10.429
▁knowledge	-10.429
▁increase	-10.429
▁skill	-10.4291
▁chill	-10.4302
UR	-10.4313
▁exp	-10.4326
▁seeing	-10.4333
Good	-10.4335
▁shield	-10.4337
▁American	-10.4341
▁Each	-10.4345
▁lands	-10.4351
▁slab	-10.4353
▁repair	-10.4354
▁country	-10.4359
▁grin	-10.4369
▁manner	-10.437
vid	-10.4379
▁bat	-10.4379
▁requirements	-10.4385
▁Take	-10.4386
own	-10.4396
▁flow	-10.4397
▁favorite	-10.44
▁shower	-10.4402
▁split	-10.4403
turn	-10.4403
▁series	-10.4404
▁wonderful	-10.4404
▁miles	-10.4406
die	-10.4425
▁strap	-10.4429
CASE	-10.4431
▁layer	-10.4432
▁u	-10.4436
▁desert	-10.4441
▁lean	-10.4445
▁broad	-10.4447
▁horrible	-10.4447
▁fail	-10.4451
ously	-10.4452
▁min	-10.4454
sign	-10.4459
▁palm	-10.4459
OP	-10.4462
▁fellow	-10.4464
▁crash	-10.4467
uce	-10.4471
▁wo	-10.4471
▁driver	-10.4476
▁rush	-10.4477
▁survive	-10.4478
▁pas	-10.4478
▁pillar	-10.4481
▁fog	-10.4489
▁hop	-10.4493
arf	-10.4497
hand	-10.4502
▁delicate	-10.451
▁concern	-10.452
clock	-10.4524
▁flu	-10.4531
▁parents	-10.4532
down	-10.4534
▁lives	-10.4535
sized	-10.4537
▁ST	-10.4539
▁drawn	-10.454
▁trace	-10.4546
▁carries	-10.4547
▁sigh	-10.4552
▁months	-10.4556
▁About	-10.4558
ui	-10.4559
▁ME	-10.4561
▁style	-10.4561
▁scenes	-10.4568
▁emb	-10.4571
▁assume	-10.4575
▁consist	-10.4577
LA	-10.4579
▁previously	-10.458
88	-10.4581
▁gesture	-10.4589
▁club	-10.459
▁pur	-10.4604
▁glove	-10.4606
urs	-10.4606
▁forgotten	-10.4606
▁underground	-10.4608
▁sufficient	-10.4621
▁shaking	-10.4622
▁Ka	-10.4636
ace	-10.4637
▁Bl	-10.4646
Scene	-10.4653
▁decided	-10.4656
▁sell	-10.4661
▁variable	-10.4662
▁treat	-10.4664
▁Sometimes	-10.4686
istic	-10.4691
▁crush	-10.47
AMINE	-10.4702
▁bulb	-10.4702
print	-10.4708
ham	-10.471
▁saving	-10.4712
▁placed	-10.4713
▁physical	-10.4734
▁Also	-10.4737
▁Queen	-10.4751
▁David	-10.4751
▁creak	-10.4754
▁Ph	-10.4757
▁Any	-10.4762
▁substantial	-10.4783
▁nod	-10.4786
▁Star	-10.4788
▁oh	-10.4791
▁Mary	-10.4798
▁company	-10.48
ening	-10.4803
▁pure	-10.4807
▁function	-10.4813
▁cylinder	-10.4816
▁explore	-10.4816
▁truck	-10.4817
▁spray	-10.4818
▁Ge	-10.4819
▁greater	-10.4831
▁acquisitions	-10.4832
▁wrist	-10.4832
▁softly	-10.4833
▁TV	-10.484
▁ending	-10.485
▁je	-10.4851
▁issue	-10.4861
▁clo	-10.4862
▁upward	-10.4863
nal	-10.4864
▁concise	-10.4865
▁separate	-10.4865
▁Light	-10.4871
▁drawing	-10.4875
▁Vous	-10.4875
▁shudder	-10.4881
▁stories	-10.4881
amente	-10.4885
▁raised	-10.4897
▁Melvin	-10.4898
▁programming	-10.4898
win	-10.4898
Okay	-10.4899
▁marks	-10.492
▁City	-10.493
▁breathe	-10.4931
Consider	-10.4933
ology	-10.4934
▁Come	-10.4936
long	-10.4937
▁edges	-10.4943
EE	-10.495
▁whispers	-10.4952
▁mysterious	-10.4964
▁deliver	-10.4964
▁occurs	-10.4967
OO	-10.4971
▁dining	-10.4972
▁tracks	-10.4977
▁slope	-10.4981
ney	-10.4984
▁Leo	-10.4984
▁sealed	-10.4986
oh	-10.4989
ax	-10.4992
▁destination	-10.4999
▁gasp	-10.5
▁subexpression	-10.5014
▁Paul	-10.502
Let	-10.5021
▁pages	-10.5022
▁etc	-10.5025
▁Out	-10.5026
▁im	-10.5027
▁junk	-10.5032
▁cheek	-10.5032
▁archway	-10.5033
▁rising	-10.5037
▁Si	-10.5038
▁hut	-10.5038
▁Red	-10.5039
ech	-10.504
▁width	-10.5047
▁stock	-10.5048
▁pun	-10.505
▁Old	-10.5053
▁enable	-10.5055
▁higher	-10.5063
▁dense	-10.5065
▁element	-10.5067
▁played	-10.5079
▁paragraphs	-10.5081
▁Okay	-10.5081
▁mouse	-10.5084
▁stopped	-10.5086
▁und	-10.5089
▁wh	-10.5094
▁monkey	-10.5098
▁vault	-10.5098
▁odor	-10.5099
▁race	-10.5107
▁sul	-10.5108
xi	-10.5119
▁raise	-10.512
▁properly	-10.5122
▁Ben	-10.5124
iously	-10.5127
▁Dan	-10.5129
▁fountain	-10.5131
▁Chris	-10.5132
shaped	-10.5134
gan	-10.5135
▁include	-10.5136
▁upwards	-10.5139
▁trade	-10.5146
▁lib	-10.5147
▁lets	-10.5147
▁default	-10.5148
▁inanimate	-10.5148
▁watches	-10.5152
▁eaten	-10.5153
▁conceal	-10.5162
▁mutters	-10.5162
▁health	-10.5194
▁blocked	-10.5203
hal	-10.5203
rupt	-10.5212
▁bucket	-10.5217
▁strike	-10.5222
ATION	-10.5228
tell	-10.5229
▁Il	-10.523
▁appropriate	-10.5233
▁nasty	-10.5233
▁burst	-10.5245
▁pants	-10.5248
▁horror	-10.525
▁neither	-10.525
▁tumble	-10.525
▁VM	-10.5251
▁dart	-10.5255
▁screaming	-10.5257
box	-10.5266
▁feather	-10.5267
▁mounted	-10.5268
with	-10.5271
ata	-10.5275
IS	-10.5277
▁male	-10.5285
▁holes	-10.5286
know	-10.5287
wait	-10.5289
▁curtains	-10.529
over	-10.5296
▁stumble	-10.5302
▁depict	-10.5302
▁swimming	-10.5302
▁flicker	-10.5302
fect	-10.5312
▁rot	-10.5314
▁disk	-10.5315
ID	-10.5316
▁futile	-10.5319
▁rug	-10.5319
▁leaps	-10.5322
Are	-10.5323
▁Main	-10.5324
cho	-10.5328
▁solution	-10.5336
▁abandon	-10.535
▁jo	-10.5353
▁hammer	-10.5353
▁newspaper	-10.5353
▁Strange	-10.5354
▁wise	-10.5358
lish	-10.536
▁mag	-10.5361
how	-10.5361
▁flag	-10.5362
▁slips	-10.537
▁jacket	-10.5371
▁arrival	-10.5371
▁Next	-10.5371
▁title	-10.5375
▁curve	-10.5376
▁bomb	-10.5376
An	-10.538
▁newly	-10.5386
▁teller	-10.5387
▁maximum	-10.5388
▁professor	-10.5388
▁follows	-10.5392
50	-10.5395
ME	-10.5395
▁reveals	-10.54
ella	-10.5401
▁invisible	-10.5405
▁buffer	-10.5406
▁cloak	-10.5406
▁proud	-10.5411
card	-10.5413
ula	-10.5418
▁glasses	-10.5418
▁negative	-10.5423
▁columns	-10.5424
▁leaf	-10.5425
▁bushes	-10.543
▁robe	-10.5434
ano	-10.5436
▁potion	-10.5438
▁earlier	-10.544
▁vial	-10.5442
ich	-10.5446
▁Many	-10.5448
▁fashion	-10.5452
▁nobody	-10.5454
ants	-10.5455
▁throws	-10.5457
▁guide	-10.5457
▁milk	-10.5458
▁salt	-10.5458
▁collection	-10.5462
▁replace	-10.5464
▁boxes	-10.5465
▁curtain	-10.547
▁SE	-10.5475
dra	-10.5476
▁staff	-10.5478
writer	-10.5483
rl	-10.5492
▁creep	-10.5494
person	-10.5501
▁whip	-10.5503
▁cab	-10.5504
▁claws	-10.5506
▁rail	-10.5507
▁reached	-10.5509
ux	-10.5509
▁resurrect	-10.551
▁storage	-10.551
▁scroll	-10.551
▁specify	-10.551
▁admit	-10.5512
▁funny	-10.5513
▁ignores	-10.5515
▁MA	-10.5518
▁Press	-10.552
▁dozen	-10.5525
▁breaking	-10.5526
▁hedge	-10.5528
▁failure	-10.5529
▁merely	-10.553
lac	-10.553
LL	-10.5533
▁totally	-10.5542
▁shimmer	-10.5545
----------	-10.5545
▁battery	-10.5545
▁resiz	-10.5546
▁chew	-10.555
▁passing	-10.5553
▁rag	-10.556
▁TAKE	-10.5563
▁pressure	-10.5569
oe	-10.5571
▁index	-10.5579
▁awkward	-10.558
▁edible	-10.5581
▁Angela	-10.5598
▁forms	-10.5601
late	-10.5605
gram	-10.5606
▁Lu	-10.561
-1	-10.5612
▁vanishes	-10.5622
enti	-10.5623
▁creatures	-10.5627
▁curl	-10.5632
▁wrote	-10.5633
▁blur	-10.5634
wl	-10.5638
ana	-10.5644
round	-10.5645
▁skeleton	-10.5651
▁scr	-10.5651
▁filling	-10.5656
▁keeping	-10.5661
suit	-10.5665
▁memories	-10.5669
▁ja	-10.567
noun	-10.5673
▁cheap	-10.5674
▁Under	-10.5675
▁shoes	-10.5678
▁imm	-10.5681
hu	-10.5684
▁gleam	-10.5687
▁discuss	-10.5687
▁Turn	-10.5692
▁warning	-10.5693
▁drag	-10.5698
▁dare	-10.571
▁Hi	-10.5714
▁mom	-10.5714
▁controls	-10.5715
▁Match	-10.5728
30	-10.5738
comp	-10.5745
▁Pre	-10.5757
▁allocation	-10.5758
▁socket	-10.5758
▁expected	-10.5774
ised	-10.5775
▁surroundings	-10.5776
▁television	-10.5776
▁naked	-10.5777
▁bunch	-10.5777
see	-10.5779
US	-10.5786
▁Hmm	-10.5786
Q	-10.5794
▁heavily	-10.5794
ggi	-10.5801
▁shove	-10.5801
sol	-10.5802
▁gotten	-10.5807
▁debris	-10.5813
▁axe	-10.582
▁awful	-10.5824
▁realise	-10.5826
▁Comp	-10.5828
▁concrete	-10.583
▁opaque	-10.583
▁exclaims	-10.583
▁arrow	-10.5831
▁create	-10.5834
▁Free	-10.5837
▁Sun	-10.5841
▁auto	-10.585
izing	-10.5854
▁Thank	-10.5855
For	-10.5863
▁pr	-10.587
bur	-10.5871
▁needle	-10.5872
▁breaks	-10.5878
mount	-10.5879
▁shoulders	-10.5884
▁prevents	-10.5885
▁demand	-10.5885
▁comb	-10.5886
▁snap	-10.5896
▁pal	-10.5898
All	-10.5899
▁wizard	-10.5903
▁Without	-10.5913
▁cupboard	-10.5923
▁apple	-10.5926
▁lap	-10.5934
▁whi	-10.5939
▁cream	-10.5946
▁tough	-10.5946
▁scale	-10.5966
play	-10.5966
▁ir	-10.5969
▁plug	-10.5971
▁High	-10.5978
iness	-10.5979
▁breathing	-10.5987
▁tug	-10.599
▁neatly	-10.599
iff	-10.5991
▁IT	-10.5992
▁gonna	-10.5995
lay	-10.6001
▁basement	-10.6008
▁farm	-10.6017
cha	-10.602
▁meal	-10.603
▁private	-10.6032
▁central	-10.6032
▁cough	-10.6039
▁Up	-10.6044
▁Peter	-10.6045
▁horizon	-10.6047
▁lantern	-10.605
▁movie	-10.605
▁modern	-10.6055
▁bytes	-10.606
▁grim	-10.6063
▁resist	-10.6068
▁Options	-10.6069
▁daughter	-10.6069
▁smart	-10.6069
▁Menu	-10.6071
▁faded	-10.6072
▁tray	-10.6076
▁swirl	-10.6076
▁ci	-10.608
▁mini	-10.608
▁including	-10.6087
▁phrase	-10.6087
▁border	-10.6087
▁odour	-10.6087
▁violat	-10.6089
▁SH	-10.6093
▁sheep	-10.6093
▁arc	-10.6098
ENT	-10.6103
▁threaten	-10.6104
▁relief	-10.6106
▁regard	-10.6107
▁mountains	-10.611
▁gar	-10.6112
▁burns	-10.6112
▁bin	-10.6116
▁reality	-10.6117
▁recall	-10.6117
▁removed	-10.6118
▁cru	-10.612
▁husband	-10.6124
▁SPACE	-10.6125
▁limit	-10.6126
▁meeting	-10.6131
▁notify	-10.6134
▁poster	-10.6139
▁brightly	-10.614
▁learned	-10.6142
▁welcome	-10.6143
ique	-10.6145
▁lovely	-10.6145
▁mayor	-10.6146
▁trash	-10.6151
▁tools	-10.6156
water	-10.6158
▁keyhole	-10.6166
▁passageway	-10.6168
▁Col	-10.6173
hot	-10.6174
▁upstairs	-10.618
▁temple	-10.6186
▁customer	-10.6197
▁experiment	-10.6199
▁Very	-10.6201
▁White	-10.6201
▁acting	-10.6207
▁bump	-10.6215
▁plot	-10.6219
▁fate	-10.6224
▁Dragon	-10.6237
▁forbidden	-10.6237
▁boots	-10.6237
▁enemy	-10.6237
▁oven	-10.6237
▁plaque	-10.6238
▁silk	-10.624
▁Soon	-10.6241
▁timer	-10.6241
▁succeeds	-10.6244
▁recover	-10.6245
ency	-10.6254
▁officer	-10.6255
▁Memory	-10.6256
cut	-10.6257
▁trapped	-10.6258
▁god	-10.6259
▁curse	-10.6262
ola	-10.6264
▁price	-10.6269
ima	-10.6275
▁destroyed	-10.6275
aving	-10.6277
▁stained	-10.6287
rai	-10.6289
▁flows	-10.629
▁coffin	-10.6293
▁smiling	-10.6293
▁pump	-10.63
ets	-10.6308
▁shoots	-10.6312
▁Fr	-10.6314
▁soil	-10.6325
▁colon	-10.6329
▁Impossible	-10.6331
▁hunt	-10.6332
▁eats	-10.6336
▁recent	-10.6346
▁restaurant	-10.6351
▁interrupt	-10.6351
▁Pig	-10.6357
phone	-10.636
cal	-10.6369
▁landscape	-10.637
▁summer	-10.637
▁translate	-10.637
▁transport	-10.6371
▁strangely	-10.639
abb	-10.6392
▁Over	-10.6396
tron	-10.6396
▁Water	-10.6398
▁mal	-10.6403
▁startup	-10.6403
▁activities	-10.6408
▁distinct	-10.6408
▁depth	-10.6408
▁limited	-10.6408
py	-10.6412
▁pauses	-10.6413
▁shaped	-10.6418
▁knees	-10.6419
▁research	-10.6427
▁truly	-10.6427
▁speaks	-10.6435
▁NORTH	-10.6446
ching	-10.6459
Glu	-10.646
▁joke	-10.6464
▁thorn	-10.6466
IB	-10.6476
▁pray	-10.648
▁film	-10.6485
▁servant	-10.6485
▁slice	-10.6494
▁emp	-10.6497
ppy	-10.6498
▁share	-10.6498
▁touched	-10.6509
11	-10.6522
▁video	-10.6524
▁Luc	-10.6524
specific	-10.6537
▁flap	-10.6538
▁tan	-10.654
▁female	-10.6543
▁facing	-10.6543
▁Gi	-10.6544
war	-10.6548
▁risk	-10.6549
Hi	-10.6557
▁cargo	-10.6558
▁portal	-10.656
▁orders	-10.656
▁Looks	-10.6561
▁Overflow	-10.6562
▁despite	-10.6562
▁gift	-10.6563
▁pla	-10.6565
Come	-10.6566
▁adds	-10.6567
▁peace	-10.657
▁comfort	-10.6577
ini	-10.6578
▁circ	-10.6579
▁rocky	-10.658
▁Charles	-10.6582
▁Adam	-10.6583
▁Fu	-10.6584
▁hoping	-10.6593
▁bush	-10.6598
verse	-10.6599
PrintToBuffer	-10.6601
▁rubble	-10.6605
▁fully	-10.6611
▁crazy	-10.6621
▁killing	-10.6627
▁laser	-10.663
ATE	-10.6632
▁William	-10.6641
▁represent	-10.6641
▁spinning	-10.6642
▁construct	-10.6657
▁loudly	-10.6659
▁valuable	-10.666
▁stiff	-10.666
▁trapdoor	-10.6661
▁electric	-10.667
▁punch	-10.6672
▁Mrs	-10.6672
▁lawn	-10.6679
▁covering	-10.6679
antly	-10.6682
▁knot	-10.6683
▁Far	-10.6689
▁document	-10.67
▁seal	-10.67
▁drunk	-10.6701
▁comm	-10.6706
ched	-10.6707
▁wipe	-10.6712
▁reaching	-10.6714
▁mat	-10.6719
▁account	-10.672
▁limb	-10.6722
▁product	-10.6723
▁BO	-10.6727
ndo	-10.6739
▁knight	-10.6741
▁grins	-10.6742
▁bored	-10.6745
▁faster	-10.6745
HO	-10.6747
▁por	-10.6747
cchi	-10.6753
▁Rob	-10.6755
urb	-10.6756
▁inner	-10.6759
▁Behind	-10.6759
▁develop	-10.6759
▁explosion	-10.6759
▁clutch	-10.6759
▁Tower	-10.6759
▁rings	-10.6764
▁verbs	-10.6772
NO	-10.6772
▁emergency	-10.6779
▁major	-10.6779
▁telephone	-10.6779
▁defeat	-10.678
org	-10.6787
▁Sch	-10.6791
vy	-10.6795
▁slave	-10.6799
▁cleaning	-10.68
▁parking	-10.6805
▁hose	-10.6807
▁remaining	-10.6807
▁succeed	-10.6811
▁ser	-10.6812
▁student	-10.6814
ident	-10.6817
▁World	-10.6819
▁altar	-10.6819
▁mighty	-10.682
▁sweep	-10.682
ius	-10.6822
▁twisted	-10.6824
TI	-10.6825
▁puzzles	-10.6826
▁bears	-10.6827
▁joy	-10.683
▁jumps	-10.6835
▁polished	-10.6836
▁inference	-10.6839
iti	-10.6845
part	-10.6847
▁somebody	-10.6848
▁Wall	-10.6849
▁names	-10.6849
▁lightning	-10.685
OT	-10.6853
riv	-10.6859
▁buried	-10.686
lation	-10.6861
▁sex	-10.6891
▁buzz	-10.6895
▁balcony	-10.6899
▁thunder	-10.69
▁stir	-10.6901
je	-10.6901
▁danger	-10.6908
▁deeply	-10.691
bor	-10.6915
look	-10.6923
▁Hey	-10.6925
▁IS	-10.6929
arch	-10.6939
www	-10.6943
▁Door	-10.6944
▁proceed	-10.696
▁secure	-10.696
▁flask	-10.6961
roman	-10.6974
▁quality	-10.698
▁instant	-10.6981
minate	-10.6983
▁OK	-10.6989
▁dive	-10.6991
night	-10.6992
game	-10.6993
▁hurry	-10.7
matic	-10.7008
▁spec	-10.701
▁splash	-10.7012
▁dash	-10.7018
▁perch	-10.702
DE	-10.7022
▁Three	-10.7022
▁instructions	-10.7025
▁humans	-10.7027
▁friendly	-10.7029
▁talked	-10.703
after	-10.7034
▁ven	-10.7036
▁corrupted	-10.704
▁inch	-10.7048
▁vous	-10.7051
▁spiral	-10.7062
▁shout	-10.7062
▁nut	-10.7063
MM	-10.7074
--"	-10.7077
▁UP	-10.7081
▁courtyard	-10.7082
▁envelope	-10.7088
stra	-10.7089
▁craft	-10.7094
▁lived	-10.7102
▁throne	-10.7103
▁Uncle	-10.7105
▁[8	-10.7105
▁Anna	-10.7105
▁rushes	-10.7114
▁doll	-10.7115
VE	-10.712
▁environment	-10.7123
▁lookahead	-10.7123
▁Talking	-10.7124
▁Count	-10.7124
name	-10.7124
▁sofa	-10.7127
itive	-10.7137
▁acceleration	-10.7144
▁bronze	-10.7144
▁trigger	-10.7144
▁grace	-10.715
arm	-10.7158
▁mood	-10.7165
▁Green	-10.7165
▁captain	-10.7166
▁brand	-10.7166
▁jerk	-10.7186
▁reference	-10.7188
▁unconscious	-10.7189
▁circles	-10.7194
▁raises	-10.7203
pon	-10.7205
▁valley	-10.7206
▁terror	-10.7206
mail	-10.721
▁River	-10.7211
▁birds	-10.7215
▁reflection	-10.7216
▁problems	-10.722
rain	-10.7224
▁anonymous	-10.7227
▁rifle	-10.7227
▁WEST	-10.7228
▁Dark	-10.723
▁active	-10.7237
▁Hell	-10.7237
://	-10.7248
▁copper	-10.725
imp	-10.7257
Thank	-10.7257
▁inappropriate	-10.7268
▁portrait	-10.7268
osa	-10.7269
▁deny	-10.727
▁million	-10.7277
▁stranger	-10.7284
▁claw	-10.7286
▁mill	-10.7287
▁boil	-10.7287
▁shriek	-10.7289
▁dancing	-10.7289
▁stool	-10.7289
▁amazing	-10.7289
▁bread	-10.7292
▁cost	-10.7294
cted	-10.7295
▁squeezes	-10.7295
▁moss	-10.7296
▁soak	-10.7297
vision	-10.7304
▁railing	-10.7306
▁rewind	-10.731
▁Leading	-10.731
▁warn	-10.7311
open	-10.7316
▁reg	-10.7318
▁puff	-10.7321
▁shapes	-10.7322
▁speaking	-10.7328
▁instrument	-10.7331
▁thumb	-10.7331
▁remote	-10.7331
oid	-10.7332
▁forced	-10.7332
▁stamp	-10.7336
shed	-10.7339
▁exceeding	-10.7347
▁People	-10.7352
▁groan	-10.7352
▁console	-10.7352
▁patient	-10.7353
▁cling	-10.7355
▁effective	-10.7361
▁tub	-10.7363
▁mug	-10.7366
ici	-10.7373
2/09	-10.7373
▁shiver	-10.7374
▁grue	-10.7378
▁den	-10.7389
▁contained	-10.739
▁tomorrow	-10.7395
▁Above	-10.7395
▁team	-10.7397
▁dying	-10.7398
nothing	-10.74
▁Ve	-10.7408
eth	-10.7415
▁instantly	-10.7416
▁substance	-10.7416
▁Small	-10.7416
▁Open	-10.7417
▁BE	-10.742
wise	-10.7421
▁dump	-10.7424
▁Va	-10.7425
bel	-10.7428
▁litter	-10.7431
stick	-10.7434
▁Question	-10.7437
▁Wait	-10.7439
uv	-10.7441
LY	-10.7448
▁flashes	-10.7454
nne	-10.7462
lv	-10.7463
▁bigger	-10.7464
ffer	-10.7469
▁sticks	-10.7469
▁AT	-10.7472
▁Gl	-10.7475
ule	-10.7475
▁flee	-10.748
▁bullet	-10.7482
dentification	-10.7482
ote	-10.7484
▁absolutely	-10.7487
▁Apparently	-10.7501
▁Fortunately	-10.7501
▁museum	-10.7501
▁promise	-10.7501
▁fluid	-10.7504
▁foul	-10.7506
other	-10.751
▁artist	-10.7513
▁degree	-10.7522
▁claim	-10.7522
▁strain	-10.7523
▁panic	-10.7526
Did	-10.7527
yn	-10.7535
▁leans	-10.7544
▁easier	-10.7544
▁cigarette	-10.7544
▁nervous	-10.7545
13	-10.7557
▁shooting	-10.756
▁hotel	-10.7561
▁older	-10.7564
▁stove	-10.7566
foot	-10.7566
▁thread	-10.7567
▁leader	-10.7576
0402	-10.7587
▁beauty	-10.7587
▁intended	-10.7587
▁Tim	-10.7588
▁throughout	-10.7591
▁colors	-10.7592
▁forcing	-10.7594
▁searches	-10.7598
▁gear	-10.7605
▁cracks	-10.7607
lement	-10.7607
▁journey	-10.7608
nie	-10.7614
▁law	-10.7625
▁obscure	-10.763
▁burned	-10.7631
▁strikes	-10.7645
under	-10.7647
rial	-10.7651
▁GET	-10.7655
count	-10.7656
▁shatter	-10.7658
range	-10.7666
▁bust	-10.7666
▁manual	-10.7668
▁delight	-10.767
▁Sarah	-10.7674
Mo	-10.7682
▁laughing	-10.7685
▁enclosed	-10.7685
000	-10.769
▁uncle	-10.7691
▁Help	-10.7697
link	-10.7705
▁interact	-10.7712
▁adventurer	-10.7717
▁unpleasant	-10.7717
▁shining	-10.7718
▁drown	-10.7718
▁abandoned	-10.7721
place	-10.7723
▁jaw	-10.7724
▁choices	-10.7724
rap	-10.7727
▁pipes	-10.7734
▁chimney	-10.7739
▁stairway	-10.7739
▁dagger	-10.7739
▁ASK	-10.7739
▁launch	-10.7739
▁suffer	-10.774
▁NO	-10.7742
▁gum	-10.7748
▁della	-10.775
▁pie	-10.7755
proof	-10.7756
▁sticky	-10.7765
▁flowing	-10.7767
▁ordering	-10.7771
▁Give	-10.7779
▁smash	-10.7781
▁uncomfortable	-10.7783
▁complain	-10.7783
▁18	-10.7784
▁practice	-10.7785
uni	-10.7786
▁Leave	-10.7787
▁difference	-10.7805
▁growls	-10.7809
▁faintly	-10.781
▁cracked	-10.7812
▁tune	-10.7813
ability	-10.7818
▁Copyright	-10.7827
Ha	-10.7828
▁charm	-10.783
▁cellar	-10.7839
▁bloody	-10.7841
ita	-10.7844
▁footsteps	-10.7849
▁digging	-10.7849
▁lookbehind	-10.7853
▁chin	-10.7856
▁cal	-10.7857
▁FOR	-10.7859
▁waiter	-10.7862
eck	-10.7868
▁chasm	-10.7872
▁lunch	-10.7874
ipping	-10.7879
▁flush	-10.788
▁wing	-10.7889
▁Tu	-10.7892
rise	-10.7892
▁pretend	-10.7895
▁piano	-10.7895
12	-10.7897
eath	-10.7898
▁goat	-10.7908
een	-10.7909
stand	-10.7909
▁excited	-10.7916
▁impression	-10.7916
▁pointed	-10.7917
20	-10.7918
▁born	-10.7929
Some	-10.7938
▁intense	-10.7938
▁yells	-10.794
▁pictures	-10.794
<	-10.794
▁exhausted	-10.7951
▁ye	-10.7953
OK	-10.7955
▁bang	-10.7958
▁license	-10.7961
▁hesitate	-10.7961
▁ugly	-10.7961
bbing	-10.7962
▁firm	-10.7965
▁quitting	-10.7966
lon	-10.7969
▁bone	-10.7972
▁Final	-10.7989
mente	-10.7991
▁surprisingly	-10.7993
▁dent	-10.8001
14	-10.8004
▁glimpse	-10.8005
▁mismatch	-10.8005
▁lobby	-10.8005
▁cult	-10.8006
Where	-10.8008
▁Magic	-10.801
ili	-10.8023
▁hospital	-10.8028
▁illuminate	-10.8028
▁pillow	-10.8029
▁knocking	-10.803
8:	-10.8039
▁Chamber	-10.8051
▁flutter	-10.8051
▁yeah	-10.8051
▁mutter	-10.8055
Ch	-10.8063
▁anger	-10.8064
say	-10.8068
▁expensive	-10.8073
▁mumble	-10.8073
▁kn	-10.8076
zen	-10.8079
ograph	-10.8082
▁lump	-10.8083
▁maid	-10.8088
ELL	-10.8092
lower	-10.8094
▁Despite	-10.8096
▁Life	-10.8098
▁Doctor	-10.8099
claim	-10.8104
UL	-10.8108
▁straw	-10.812
▁insist	-10.8121
▁fields	-10.8121
▁House	-10.8122
▁Com	-10.8122
most	-10.8129
▁sending	-10.813
▁anti	-10.8132
▁hai	-10.814
cat	-10.8159
ugging	-10.816
▁stall	-10.8161
▁happily	-10.8164
▁impressive	-10.8164
▁afternoon	-10.8164
▁construction	-10.8168
▁possession	-10.8173
▁Mc	-10.8182
▁honest	-10.8187
rator	-10.8188
▁pill	-10.8189
▁besides	-10.8198
ara	-10.8199
▁Four	-10.82
▁Yeah	-10.8207
▁arrest	-10.821
▁backwards	-10.8212
▁lucky	-10.8214
▁quarters	-10.8218
▁wondering	-10.8218
▁eh	-10.8219
▁request	-10.8221
▁Rock	-10.8221
▁dai	-10.823
▁typical	-10.8233
▁fuck	-10.8245
berry	-10.8248
▁unstable	-10.8256
rob	-10.8259
▁casting	-10.8261
MP	-10.8264
ito	-10.8264
▁rapidly	-10.8265
NE	-10.8275
▁atmosphere	-10.8279
▁waist	-10.8282
finding	-10.8284
▁dock	-10.8287
▁pace	-10.8289
▁deeper	-10.8291
bri	-10.8292
▁whistle	-10.8302
▁bought	-10.8302
▁causing	-10.8302
▁combination	-10.8303
▁weapons	-10.8304
▁bounces	-10.8311
▁approaching	-10.8318
▁normally	-10.8321
▁decision	-10.8326
▁priest	-10.8333
Qu	-10.8343
Of	-10.8344
▁May	-10.8344
▁plank	-10.8345
Routine	-10.8349
▁signal	-10.8349
▁enterable	-10.835
▁earning	-10.8351
ik	-10.8361
▁AND	-10.8368
▁plenty	-10.8372
▁retrieve	-10.8372
▁cheer	-10.8378
lum	-10.8379
▁lion	-10.8387
▁Persuasion	-10.8395
▁passenger	-10.8395
▁intention	-10.8396
▁related	-10.8396
▁Class	-10.8402
rum	-10.8408
▁mental	-10.8412
▁crying	-10.8414
▁individual	-10.8419
▁pistol	-10.8419
▁twin	-10.8421
▁successful	-10.844
▁disappoint	-10.8442
▁WITH	-10.8442
▁royal	-10.8442
▁ought	-10.8443
▁wedge	-10.8443
▁honey	-10.8444
AP	-10.8457
▁vanish	-10.8459
▁insufficient	-10.8466
▁thrust	-10.8466
▁procedural	-10.8468
▁null	-10.8472
▁echoes	-10.8473
▁slap	-10.8478
cher	-10.8487
that	-10.8488
▁convince	-10.8489
▁gloom	-10.8489
▁Office	-10.8491
TY	-10.8494
▁rolling	-10.8497
Press	-10.8504
▁12	-10.8515
▁safely	-10.8515
▁apparent	-10.8517
taking	-10.8518
▁Str	-10.8523
25	-10.8525
▁urge	-10.8535
▁French	-10.8537
▁Status	-10.8537
▁correspondence	-10.8537
▁attract	-10.8538
▁electrical	-10.8547
▁began	-10.855
▁bitter	-10.8555
▁Floyd	-10.8561
▁palace	-10.8561
▁lined	-10.8563
▁spare	-10.8568
ked	-10.8575
▁endless	-10.8581
▁pond	-10.8581
▁accident	-10.8584
▁delicious	-10.8584
▁terminal	-10.8584
▁activate	-10.8584
▁rattle	-10.8586
▁market	-10.8588
▁greet	-10.8589
rant	-10.859
various	-10.8591
▁emerge	-10.8595
acy	-10.8606
▁docking	-10.8607
▁guilt	-10.8608
▁variety	-10.8608
▁decorated	-10.861
face	-10.8611
▁consume	-10.8612
▁clues	-10.8615
before	-10.8615
▁initially	-10.8624
▁occasionally	-10.8626
▁occur	-10.8627
▁murmur	-10.8632
▁shame	-10.8633
rack	-10.8634
▁contemplate	-10.8635
▁members	-10.8649
▁transform	-10.8657
▁toss	-10.8659
▁labeled	-10.8672
▁badly	-10.8677
▁bodies	-10.868
▁equal	-10.868
▁restoring	-10.8681
▁waterfall	-10.8685
▁Val	-10.8687
▁proved	-10.8688
▁ARE	-10.8689
.??	-10.8693
▁cute	-10.8703
▁worried	-10.8704
▁century	-10.8704
▁Er	-10.8705
▁yell	-10.8718
▁nervously	-10.8727
▁speech	-10.8728
▁muscle	-10.8728
▁eager	-10.8728
▁summon	-10.8729
▁Art	-10.8734
▁weeks	-10.874
▁sticking	-10.8743
▁select	-10.8749
▁SOUTH	-10.8753
▁clerk	-10.8753
▁splinter	-10.8753
▁universe	-10.8753
▁applies	-10.8753
▁steady	-10.8753
▁flashlight	-10.8755
▁rust	-10.8768
▁sway	-10.8768
▁scratches	-10.8772
▁fabric	-10.8777
▁measure	-10.8777
▁period	-10.8777
▁Big	-10.878
▁plum	-10.8782
▁Sand	-10.8783
▁beep	-10.8783
Get	-10.8792
▁Odd	-10.8796
▁goal	-10.8798
▁fucking	-10.8799
▁yawn	-10.8802
▁Anyway	-10.8803
▁mail	-10.8804
De	-10.8806
ente	-10.8815
▁restarting	-10.8816
clo	-10.882
▁beams	-10.8823
▁rabbit	-10.8826
▁horn	-10.8835
▁clip	-10.8837
▁butler	-10.8841
action	-10.8843
▁refuses	-10.8845
ju	-10.8848
▁drug	-10.8856
otto	-10.8864
▁picking	-10.8873
▁Such	-10.8873
▁sliding	-10.8875
▁applied	-10.8875
value	-10.8887
▁latest	-10.8892
▁electronic	-10.8899
▁court	-10.89
▁Blue	-10.8901
▁feature	-10.8901
▁sensation	-10.8904
▁halfway	-10.891
▁Whatever	-10.8912
▁Em	-10.8913
body	-10.8923
WORD	-10.8924
▁balloon	-10.8926
▁content	-10.893
▁bearing	-10.8932
Me	-10.8935
▁letting	-10.8938
▁peel	-10.8939
▁gran	-10.8943
rocedural	-10.8947
▁gut	-10.8948
▁chemical	-10.8949
▁damaged	-10.8949
type	-10.8949
▁Tom	-10.895
▁witch	-10.8953
▁floats	-10.8954
▁reverse	-10.8955
▁decor	-10.8958
▁louder	-10.8962
▁calling	-10.8963
▁TR	-10.8968
▁securely	-10.8973
▁pleasure	-10.8973
▁became	-10.8973
▁roughly	-10.8973
▁stroke	-10.8974
▁literal	-10.8976
Have	-10.8978
▁boring	-10.8982
▁background	-10.8983
▁painful	-10.8985
corn	-10.899
▁supported	-10.8996
▁pushable	-10.8998
▁Several	-10.8998
▁singularity	-10.8999
ABLE	-10.9
▁existence	-10.9
chan	-10.9011
▁considering	-10.9014
▁outline	-10.9015
SS	-10.9019
▁gods	-10.9024
▁becoming	-10.9024
cious	-10.9026
▁shit	-10.9027
▁Jane	-10.9027
▁unlit	-10.9039
▁pleased	-10.9043
▁volume	-10.9048
▁granite	-10.9049
▁wrapped	-10.9049
▁harder	-10.9051
▁Remember	-10.9051
▁airlock	-10.9054
▁crime	-10.9054
rating	-10.9055
▁Bra	-10.9064
▁bursts	-10.9065
▁fancy	-10.9074
▁CH	-10.9083
▁member	-10.9084
escent	-10.9095
▁Moon	-10.9096
▁Little	-10.9098
▁Ninario	-10.9098
ination	-10.9101
rip	-10.9112
▁reactor	-10.9112
ith	-10.9117
▁oddly	-10.9118
▁HA	-10.912
▁severe	-10.9122
Th	-10.9123
▁Unsuccessful	-10.9123
▁eyebrow	-10.9123
▁flood	-10.9123
▁shred	-10.913
▁students	-10.9133
▁Mor	-10.9133
▁YOUR	-10.9135
ARD	-10.9136
gling	-10.9136
▁roots	-10.914
▁Never	-10.9145
▁bracket	-10.9148
▁encounter	-10.9148
▁emerged	-10.9157
▁glares	-10.9159
▁buck	-10.9159
▁record	-10.916
▁Princess	-10.9161
▁grate	-10.9161
▁Mom	-10.9163
rav	-10.9165
▁locker	-10.9166
▁tire	-10.9171
▁argument	-10.9173
▁Park	-10.9174
▁pouring	-10.9175
▁Mother	-10.9179
ification	-10.9181
▁Chi	-10.9183
▁Christmas	-10.9199
▁Minister	-10.9199
▁retreat	-10.9199
▁bookcase	-10.92
▁beta	-10.92
▁Will	-10.9211
SH	-10.9216
▁Path	-10.9218
cross	-10.9224
▁Andrew	-10.9224
zo	-10.9229
ALL	-10.9233
▁frowns	-10.9245
▁considered	-10.9248
load	-10.9248
Here	-10.9249
yntax	-10.925
▁apologize	-10.925
▁supplies	-10.925
▁circuit	-10.925
pass	-10.9258
bber	-10.927
▁rage	-10.927
power	-10.9272
▁Thomas	-10.9275
▁cottage	-10.9275
▁pyramid	-10.9275
▁capture	-10.9276
▁angel	-10.9276
▁crude	-10.9287
stack	-10.9292
▁clue	-10.9294
▁Using	-10.9299
▁audience	-10.9301
▁occupied	-10.9301
▁carriage	-10.9301
▁emits	-10.9301
▁teach	-10.931
▁Our	-10.9318
▁Exits	-10.932
guard	-10.9322
▁rev	-10.9323
▁receptionist	-10.9327
▁lip	-10.9333
▁gem	-10.9334
▁lava	-10.9342
pli	-10.9346
Thanks	-10.935
▁presumably	-10.9352
▁channel	-10.9352
▁sneak	-10.9352
▁jagged	-10.9352
▁whirl	-10.9353
▁deserve	-10.9354
▁cent	-10.9356
▁desperate	-10.9358
▁bounce	-10.9368
▁attach	-10.9377
▁crumble	-10.9378
▁wax	-10.9383
▁van	-10.9384
▁acid	-10.9387
hon	-10.9387
▁via	-10.9392
▁temperature	-10.9404
▁Guard	-10.9406
▁commit	-10.9408
▁Down	-10.9411
▁sharply	-10.9413
▁porch	-10.9415
ppe	-10.9428
▁psych	-10.943
▁surrounds	-10.9433
smith	-10.9442
▁San	-10.9442
▁site	-10.9442
▁excellent	-10.9456
▁magazine	-10.9456
▁unavailable	-10.9456
▁EAST	-10.9456
▁foyer	-10.9456
▁maintain	-10.946
▁Basic	-10.946
▁Canno	-10.947
pan	-10.9474
▁Invalid	-10.9482
▁brilliant	-10.9482
del	-10.9482
▁Inf	-10.9487
▁Things	-10.9488
▁ashes	-10.949
ummy	-10.9497
list	-10.9498
Lo	-10.9502
▁shelter	-10.9508
▁pry	-10.9514
take	-10.9515
▁highly	-10.9516
craft	-10.9521
▁addition	-10.9523
post	-10.9527
▁float	-10.953
▁fuse	-10.9533
▁mushroom	-10.9534
▁verifying	-10.9536
▁sono	-10.9537
▁emerges	-10.9539
uk	-10.9548
▁sin	-10.955
▁jungle	-10.956
▁chunk	-10.9562
▁drip	-10.9566
▁chop	-10.9568
▁em	-10.957
21	-10.9574
▁Much	-10.9576
ello	-10.9579
▁meters	-10.9581
▁Probably	-10.9586
▁wardrobe	-10.9586
▁dollar	-10.9592
▁echoing	-10.9593
▁handful	-10.9599
▁corn	-10.9606
▁Near	-10.9609
▁surround	-10.9612
▁breast	-10.9613
▁explodes	-10.9615
ization	-10.9626
▁rude	-10.9629
▁fighting	-10.9634
▁laboratory	-10.9639
llowing	-10.9641
▁impact	-10.9643
▁email	-10.9644
uous	-10.9645
rated	-10.9654
▁mono	-10.9662
▁swift	-10.9666
▁paid	-10.9672
ete	-10.9681
▁carving	-10.9681
star	-10.9687
▁wildly	-10.9687
▁shines	-10.9688
▁chant	-10.969
▁army	-10.969
▁vegetable	-10.9692
▁costume	-10.9692
▁judge	-10.9693
▁approaches	-10.9693
AND	-10.9695
▁shallow	-10.9696
▁lens	-10.9707
Rule	-10.9712
▁SO	-10.9718
▁resize	-10.9718
▁Colonel	-10.9719
▁swamp	-10.9719
italic	-10.9732
keeper	-10.9734
▁Entry	-10.9747
ANT	-10.9759
▁neat	-10.977
▁exhibit	-10.9773
▁Fatal	-10.9773
▁detective	-10.9777
cie	-10.9786
phy	-10.9788
▁11	-10.9793
mebeira	-10.9799
▁famous	-10.98
▁magnet	-10.9801
▁Find	-10.9803
IF	-10.9804
▁cannon	-10.9806
▁brow	-10.9806
une	-10.9822
▁hinges	-10.9824
▁alter	-10.9826
▁abruptly	-10.9826
▁bartender	-10.9826
▁innuendo	-10.9826
▁method	-10.9826
▁German	-10.9826
▁heaven	-10.9827
▁ringing	-10.9829
▁cruel	-10.9832
▁generally	-10.9846
▁driving	-10.9853
▁install	-10.9854
▁month	-10.9857
corp	-10.986
▁Alley	-10.9861
▁Whi	-10.9863
etto	-10.9864
trace	-10.9868
Welcome	-10.9881
▁Beyond	-10.9881
▁helpful	-10.9884
▁fuel	-10.9889
colored	-10.9897
Perhaps	-10.9897
ask	-10.9901
▁jumped	-10.9907
▁Both	-10.9908
▁statement	-10.9909
▁frown	-10.9914
▁stalk	-10.9915
▁rare	-10.9916
ko	-10.992
▁jet	-10.992
▁Nor	-10.9925
▁rob	-10.9933
▁ability	-10.9933
▁diamond	-10.9935
▁permanent	-10.9935
▁puddle	-10.9936
▁prison	-10.994
▁hitting	-10.9941
▁dumb	-10.9941
▁leaning	-10.9942
▁stab	-10.9942
▁vague	-10.9944
▁thus	-10.9949
while	-10.9952
space	-10.9954
▁TH	-10.9958
▁bru	-10.9959
elli	-10.996
▁flickering	-10.9961
▁incompatible	-10.9962
▁Aunt	-10.9966
▁loom	-10.997
▁END	-10.9971
▁thoroughly	-10.9973
lk	-10.9974
▁visitor	-10.9985
▁momentarily	-10.999
▁casual	-10.999
▁ornate	-10.999
Visibility	-10.9991
▁spacesuit	-10.9992
▁dodge	-10.9993
▁worm	-10.9993
▁wink	-11.0002
▁violently	-11.0009
▁howl	-11.0018
▁laughter	-11.0026
▁bla	-11.003
▁beard	-11.0033
decide	-11.0035
▁pine	-11.0041
▁elegant	-11.0045
▁clever	-11.0045
▁forehead	-11.0045
▁grunt	-11.0045
▁automatically	-11.0045
▁spike	-11.0046
▁sake	-11.005
▁rushing	-11.0052
▁missed	-11.0053
▁terra	-11.0057
▁ruined	-11.0059
▁swirling	-11.0061
▁License	-11.0072
▁wreck	-11.0072
▁Fred	-11.0074
▁Outside	-11.0075
▁towel	-11.0075
▁untie	-11.0078
▁hung	-11.0083
▁obj	-11.0087
▁sack	-11.0087
▁agent	-11.0096
digit	-11.0099
▁15	-11.0099
▁dissolve	-11.01
▁insect	-11.0101
▁legend	-11.0105
▁distracted	-11.0108
▁gall	-11.0111
cord	-11.0113
run	-11.0115
though	-11.0119
intent	-11.0124
▁fake	-11.0125
▁cash	-11.0126
yard	-11.0126
▁tuo	-11.0127
▁http	-11.0128
▁rescue	-11.0128
▁Except	-11.0129
▁cake	-11.013
Talk	-11.0136
▁mechanical	-11.0137
▁hip	-11.0145
▁paying	-11.0156
▁government	-11.0156
▁Second	-11.0156
▁official	-11.0156
▁glue	-11.0164
▁teacher	-11.0165
▁warmth	-11.0179
▁Bur	-11.0183
▁THAT	-11.0184
▁Walk	-11.0185
▁labelled	-11.0187
▁leak	-11.0189
▁bent	-11.0192
▁deb	-11.0193
▁latch	-11.0202
▁expecting	-11.0207
▁science	-11.0212
▁script	-11.0212
▁fault	-11.0212
▁predictable	-11.0213
▁spoke	-11.0216
▁armor	-11.023
▁Trans	-11.0236
23	-11.0237
▁behavior	-11.024
▁OPEN	-11.024
ground	-11.024
▁creation	-11.024
▁duty	-11.0241
▁software	-11.0242
▁shouting	-11.0247
▁seemingly	-11.0248
piece	-11.026
▁required	-11.0261
▁muffled	-11.0268
▁plunge	-11.0268
▁glint	-11.027
ONE	-11.0272
▁occasional	-11.028
▁bull	-11.0289
blank	-11.0289
La	-11.0292
▁military	-11.0296
▁annoying	-11.0296
▁Anton	-11.0299
▁gli	-11.0299
CO	-11.0299
▁glare	-11.0314
▁scramble	-11.0324
▁twitch	-11.0324
▁Accessibility	-11.0324
▁gust	-11.0327
▁aisle	-11.033
▁ray	-11.0333
▁fourth	-11.0337
▁DE	-11.0339
ani	-11.0347
▁Back	-11.0348
▁Stu	-11.0349
ility	-11.0351
▁scared	-11.0352
▁distribute	-11.0353
ological	-11.0353
▁keypad	-11.0353
▁exposed	-11.0359
cca	-11.0362
LD	-11.0364
have	-11.0367
amongst	-11.0369
▁Last	-11.0369
▁searched	-11.0369
character	-11.0374
▁overwhelm	-11.0381
▁fierce	-11.0381
▁shards	-11.0382
▁concept	-11.0387
▁fond	-11.0388
▁spear	-11.039
▁surge	-11.0393
kov	-11.0394
▁vertically	-11.0399
▁precious	-11.0411
▁Space	-11.0411
▁dripping	-11.0441
▁capable	-11.0453
▁afford	-11.0467
▁emotion	-11.0467
▁transparent	-11.0467
▁NE	-11.0471
▁package	-11.0472
▁buzzing	-11.0476
EAT	-11.0478
▁Cla	-11.048
▁Ter	-11.0494
▁colored	-11.0497
▁ascend	-11.0497
▁deadly	-11.05
▁excuse	-11.0501
Maybe	-11.0505
nameless	-11.0505
▁stronger	-11.0509
▁grown	-11.0519
south	-11.052
cast	-11.0522
▁concentrate	-11.0525
▁forgot	-11.053
▁actual	-11.0541
▁exc	-11.0546
hhh	-11.0546
▁swear	-11.0548
▁DOWN	-11.0554
▁depression	-11.0554
▁significant	-11.0554
▁pub	-11.0558
▁Nice	-11.0575
When	-11.0581
▁Character	-11.0583
▁creating	-11.0584
▁portion	-11.0602
▁completed	-11.0607
▁arranged	-11.0612
▁complicated	-11.0612
▁rectangular	-11.0612
▁Stephen	-11.0613
▁Almost	-11.0613
▁habit	-11.0615
▁violent	-11.0621
19	-11.0624
▁pol	-11.0629
walk	-11.0632
▁Make	-11.0639
▁gravel	-11.064
▁confirm	-11.0641
▁precise	-11.0641
▁warrior	-11.0642
▁remarks	-11.0642
▁tilt	-11.0643
▁Direct	-11.0647
▁crown	-11.0663
▁based	-11.0668
▁Empire	-11.0671
▁Phrase	-11.0671
▁garbage	-11.0671
▁violence	-11.0671
▁spoil	-11.0671
▁convey	-11.0671
▁featureless	-11.0674
▁disgust	-11.0679
Ho	-11.068
▁host	-11.069
▁badge	-11.069
▁distract	-11.0693
▁tale	-11.0696
▁sens	-11.0696
▁cramped	-11.07
▁angrily	-11.07
▁capital	-11.07
▁US	-11.0701
▁shuttle	-11.0701
▁threat	-11.0702
▁motor	-11.0706
▁frost	-11.0706
ji	-11.072
fall	-11.0727
▁enclose	-11.0727
▁Sweet	-11.073
▁Long	-11.0736
▁Part	-11.0747
▁Because	-11.0752
▁rate	-11.0755
▁instance	-11.076
▁halt	-11.0764
▁added	-11.0769
▁ou	-11.0773
▁tar	-11.0774
▁Really	-11.0775
▁speaker	-11.0775
▁MO	-11.0787
▁globe	-11.0789
▁mystery	-11.0789
igh	-11.0789
▁fridge	-11.079
▁Verb	-11.079
▁2000	-11.0799
what	-11.0805
zione	-11.0817
▁exception	-11.0817
▁Milverton	-11.0819
▁companion	-11.0819
▁brave	-11.082
mission	-11.0825
▁strand	-11.0826
▁suspicious	-11.0829
▁Road	-11.083
▁Actually	-11.0836
▁ease	-11.0852
▁canyon	-11.0856
▁wandering	-11.086
bell	-11.0868
▁echo	-11.0869
▁protest	-11.0871
▁diameter	-11.0879
▁scientist	-11.0879
▁expert	-11.0879
▁tuck	-11.0892
▁span	-11.0896
15	-11.0898
▁inscription	-11.0909
▁suicide	-11.0909
▁thief	-11.0909
▁victim	-11.0909
▁stagger	-11.0909
▁HE	-11.0911
▁Forest	-11.0912
▁absent	-11.0912
▁packet	-11.0913
▁canvas	-11.092
▁deserted	-11.092
▁vari	-11.0933
length	-11.0934
▁Unicode	-11.0939
▁engage	-11.0939
bag	-11.0939
▁flick	-11.0939
▁regret	-11.094
▁tasted	-11.0949
▁spine	-11.0954
▁dispos	-11.0955
▁ram	-11.0956
oke	-11.096
▁fade	-11.0961
▁Within	-11.0964
state	-11.0967
▁London	-11.0969
▁slippery	-11.0969
▁ankle	-11.0971
also	-11.0979
▁Fire	-11.0983
▁shattered	-11.0991
▁prepared	-11.0999
▁symmetric	-11.0999
▁consciousness	-11.0999
▁worst	-11.0999
▁improve	-11.0999
▁express	-11.0999
▁Read	-11.1006
▁Night	-11.1011
▁Clo	-11.1011
▁keylessly	-11.1013
One	-11.1027
▁refuse	-11.1028
▁stink	-11.103
▁flashing	-11.1031
icle	-11.1032
▁Father	-11.1032
▁broke	-11.1032
▁memo	-11.1036
▁freezer	-11.104
blo	-11.1045
itude	-11.1047
▁advice	-11.106
▁harsh	-11.106
TO	-11.1061
▁hurl	-11.1064
▁coil	-11.1066
▁sip	-11.1067
glo	-11.1077
▁sadly	-11.1081
▁affect	-11.1085
▁screech	-11.1091
▁Arm	-11.1092
▁Hallway	-11.1094
▁quip	-11.11
▁void	-11.1105
▁expos	-11.111
▁loss	-11.1111
▁consult	-11.1116
CTE	-11.1116
▁beak	-11.1117
▁attend	-11.1117
▁imagination	-11.1121
▁mortal	-11.1123
▁yank	-11.1125
▁bunk	-11.1126
code	-11.1131
▁losing	-11.1134
PER	-11.1144
▁kneel	-11.1149
field	-11.1149
WHITE	-11.1152
▁Wizard	-11.1152
▁gravity	-11.1152
▁technology	-11.1152
▁cushion	-11.1152
▁Ralph	-11.1152
▁regain	-11.1152
▁reject	-11.1152
▁nurse	-11.1153
▁plaster	-11.1154
▁inspection	-11.1154
▁depart	-11.1155
See	-11.1164
▁winter	-11.1174
▁Made	-11.1178
▁oxygen	-11.1183
▁wrench	-11.1183
▁Figure	-11.1183
▁humming	-11.1183
▁clatter	-11.1184
▁rubbed	-11.1185
▁copyright	-11.1185
▁micro	-11.1186
▁relate	-11.1201
▁suspiciously	-11.1204
covered	-11.1209
▁opinion	-11.1214
▁smear	-11.1214
▁hood	-11.1218
▁Surely	-11.1233
▁listened	-11.1238
▁knocked	-11.1245
▁pizza	-11.1245
▁glitter	-11.1245
▁conduct	-11.1245
▁discern	-11.1245
▁Below	-11.1249
▁dimly	-11.1252
level	-11.1254
▁OR	-11.1255
▁widen	-11.1259
▁appreciated	-11.1259
RY	-11.126
▁theatre	-11.1265
▁downstairs	-11.1276
▁unseen	-11.1276
05	-11.1284
▁toast	-11.13
▁absorb	-11.1307
▁potential	-11.1307
▁adorn	-11.1308
▁ALL	-11.1319
:00	-11.132
Pa	-11.1323
arti	-11.1332
▁HELP	-11.1339
▁artifact	-11.1339
▁popular	-11.1339
▁goblin	-11.1339
▁menacing	-11.1339
▁Harold	-11.1339
▁Sitting	-11.134
▁boom	-11.1348
▁ridge	-11.1348
▁squeezed	-11.136
80	-11.1364
▁Dead	-11.1366
cop	-11.1367
▁yesterday	-11.137
▁splice	-11.137
▁password	-11.1374
▁packed	-11.1376
▁Pan	-11.1378
▁CON	-11.138
▁ban	-11.1386
midst	-11.1388
ESS	-11.1401
▁resemble	-11.1402
▁Him	-11.1404
▁cardboard	-11.1406
▁dice	-11.1407
▁Sea	-11.1407
▁100	-11.1416
▁Gar	-11.1421
▁Mike	-11.1424
▁handsome	-11.1425
▁embedded	-11.1433
▁pencil	-11.1434
▁social	-11.1435
▁decay	-11.1435
▁Sig	-11.1435
▁Simon	-11.1437
▁shack	-11.1439
ido	-11.1445
▁musical	-11.1446
▁rusted	-11.1451
▁pointless	-11.146
SPACE	-11.1464
▁torture	-11.1466
▁dried	-11.1466
▁Lookup	-11.147
▁sidewalk	-11.147
wash	-11.1473
▁alert	-11.1476
▁Book	-11.1477
▁seriously	-11.1478
▁located	-11.1482
▁Stop	-11.1483
▁tricky	-11.1487
▁Gate	-11.1488
▁refrigerator	-11.1497
▁squint	-11.1497
▁terribly	-11.1497
▁crouch	-11.1497
▁Wood	-11.1499
bli	-11.1499
▁peek	-11.1501
▁OUT	-11.1501
▁referred	-11.1503
▁OFF	-11.1504
eplaying	-11.1524
▁Duplicate	-11.1529
▁HINT	-11.1529
▁Sierra	-11.1529
▁Blood	-11.1529
▁innocent	-11.1529
▁network	-11.1529
▁Utopia	-11.1529
▁folk	-11.1529
view	-11.153
▁coal	-11.1533
▁shoe	-11.1547
base	-11.1547
▁equivalence	-11.1561
▁mattress	-11.1561
▁Initial	-11.1561
▁identical	-11.1561
▁xyzzy	-11.1561
▁Ya	-11.1563
▁caused	-11.1584
▁involved	-11.1591
▁senti	-11.1591
▁communication	-11.1593
▁anchor	-11.1594
oops	-11.1595
▁limp	-11.16
▁icy	-11.16
▁linger	-11.1603
▁operation	-11.1625
▁deciding	-11.1625
▁hull	-11.1626
▁collar	-11.1627
▁gender	-11.1627
▁blob	-11.1628
▁emanat	-11.1629
▁rotting	-11.1629
▁crashing	-11.1633
▁smashed	-11.1648
▁Day	-11.1652
Damn	-11.1654
DIGIT	-11.1658
▁Abbey	-11.1658
▁Control	-11.1658
▁Somehow	-11.166
99	-11.1661
▁Lady	-11.1667
▁crosses	-11.168
▁freeze	-11.1687
▁college	-11.169
▁traffic	-11.169
▁laid	-11.1695
▁armour	-11.1697
▁Gold	-11.1708
▁deposit	-11.171
▁peaceful	-11.1711
▁negated	-11.1722
▁manipulat	-11.1723
▁lounge	-11.1723
▁affair	-11.1723
▁freedom	-11.1723
▁employee	-11.1724
▁thump	-11.1725
▁drape	-11.1728
Hmm	-11.1738
opera	-11.1748
▁[10	-11.1749
▁hisses	-11.1754
▁queen	-11.1755
▁bastard	-11.1755
▁uncertain	-11.1755
▁rumble	-11.1756
▁parrot	-11.1756
▁prepare	-11.1756
▁Victor	-11.1757
▁concerned	-11.1768
▁Flo	-11.1769
▁yeti	-11.1782
▁exercise	-11.1788
▁recommend	-11.1788
▁partially	-11.1788
▁eerie	-11.1788
▁hug	-11.1794
▁filthy	-11.1797
Sure	-11.1797
▁conditional	-11.18
▁stun	-11.181
▁aroma	-11.181
lator	-11.1811
22	-11.1814
▁citizen	-11.1821
▁disjuncti	-11.1821
▁grinding	-11.1822
▁dip	-11.1826
▁vertical	-11.1834
▁employ	-11.1853
▁purchase	-11.1854
▁Julia	-11.1855
▁Search	-11.1855
▁medical	-11.1855
this	-11.1855
BOU	-11.1857
▁Nobody	-11.186
GE	-11.1868
▁yo	-11.1871
▁sum	-11.1881
▁Love	-11.1882
▁nearest	-11.1884
▁idiot	-11.1887
▁sandwich	-11.1887
▁slash	-11.1888
directions	-11.1889
▁Mac	-11.1895
▁reward	-11.1898
▁prize	-11.1903
▁reset	-11.1905
▁tele	-11.1916
▁dall	-11.1917
NDARY	-11.192
PUNCTU	-11.192
▁engraved	-11.192
▁journal	-11.192
▁gentleman	-11.1924
▁Grand	-11.1932
▁grating	-11.1933
▁Sure	-11.1936
▁novel	-11.1939
▁satisfying	-11.1944
▁replaced	-11.1948
▁Eventually	-11.1954
▁Examine	-11.1954
▁armchair	-11.1954
▁centuries	-11.1954
▁incredibly	-11.1954
ordina	-11.1954
▁Smith	-11.1954
▁(?<	-11.1954
▁rumbling	-11.1955
▁stable	-11.1956
world	-11.1956
▁dresser	-11.1958
▁static	-11.1962
▁rim	-11.1966
▁PRO	-11.1967
▁till	-11.1976
▁fro	-11.1982
▁Shutdown	-11.1987
▁Austin	-11.1987
▁permit	-11.1997
45	-11.2003
▁bum	-11.2004
▁aft	-11.2011
▁sailor	-11.2018
▁Madame	-11.2021
▁inhabit	-11.2021
▁ornament	-11.2021
▁cigar	-11.2021
▁incorporate	-11.2022
white	-11.2023
▁depend	-11.2026
▁jail	-11.2029
▁dei	-11.2029
TION	-11.203
▁grid	-11.2038
▁moist	-11.2043
▁startled	-11.2046
▁sensor	-11.2053
▁opportunity	-11.2054
▁catwalk	-11.2056
▁antique	-11.2056
▁semi	-11.206
▁blackness	-11.2073
▁greeting	-11.2082
bound	-11.2083
▁Alas	-11.2088
▁Scott	-11.2088
▁dizzy	-11.2088
itz	-11.2093
apping	-11.2095
Making	-11.2103
▁Port	-11.2111
▁stroll	-11.2122
▁puoi	-11.2123
▁operate	-11.2124
▁vicious	-11.2124
▁garage	-11.2126
▁peg	-11.2126
▁DIS	-11.213
▁dick	-11.2138
▁exact	-11.214
THER	-11.2143
▁Hint	-11.2144
▁sting	-11.2151
▁Locale	-11.2156
▁confusion	-11.2156
coat	-11.2172
▁upset	-11.2174
▁practically	-11.2184
▁shine	-11.2184
▁implement	-11.2189
▁incorporated	-11.2189
▁guitar	-11.219
▁honor	-11.2191
▁folded	-11.2191
▁Close	-11.2197
▁Dave	-11.2197
▁mock	-11.2208
▁rotate	-11.2211
udge	-11.2212
PL	-11.2214
▁weigh	-11.2217
▁BlkValue	-11.2225
▁Gilgamesh	-11.2225
▁Priorities	-11.2225
pushable	-11.2228
Huh	-11.2229
▁Har	-11.2229
▁barrier	-11.2232
▁Una	-11.2233
▁tag	-11.2246
NG	-11.2248
▁questo	-11.2252
▁chocolate	-11.2259
▁Mountain	-11.2259
▁medium	-11.2259
▁declare	-11.2259
▁choke	-11.2261
▁involve	-11.2261
break	-11.2263
▁Everyone	-11.2269
▁prisoner	-11.2288
▁magnificent	-11.2293
▁Castle	-11.2293
▁drill	-11.2294
▁ripped	-11.2299
▁classes	-11.2302
▁bulky	-11.2305
▁BLANK	-11.2328
▁INVENTORY	-11.2328
▁cluster	-11.2328
▁tracing	-11.2328
▁pilot	-11.2328
ike	-11.233
▁stem	-11.233
▁elsewhere	-11.2331
Wait	-11.2333
▁thud	-11.2333
▁Act	-11.2343
▁lonely	-11.2347
▁Call	-11.2353
▁ramp	-11.2355
▁grain	-11.2358
▁murky	-11.2363
▁lungs	-11.2363
▁fortune	-11.2364
▁sugar	-11.2365
▁chute	-11.2365
▁glide	-11.2375
▁polite	-11.2379
▁List	-11.2385
▁disgusting	-11.2388
▁disappeared	-11.239
▁invite	-11.2391
▁plus	-11.2394
▁exploring	-11.2398
▁alcove	-11.2398
▁nightmare	-11.2398
▁squat	-11.2399
▁attractive	-11.2401
▁Death	-11.2401
▁TELL	-11.2402
▁indexed	-11.2402
Ex	-11.2402
▁thirsty	-11.2408
▁stopping	-11.2411
▁keyboard	-11.2413
▁chase	-11.2418
▁march	-11.2421
Congratulations	-11.2433
▁advantage	-11.2433
▁sample	-11.2433
▁Louis	-11.2433
▁Baron	-11.2441
▁hack	-11.2454
lapping	-11.2466
▁farmer	-11.2467
▁screwdriver	-11.2468
▁huh	-11.2468
▁permission	-11.2469
▁Lab	-11.247
▁recess	-11.2473
▁trickle	-11.2475
▁collapsed	-11.2481
▁Thi	-11.2482
verb	-11.2495
▁Tri	-11.2497
▁sei	-11.25
endo	-11.2503
▁challenge	-11.2503
▁clutter	-11.2503
▁Human	-11.2503
▁Linda	-11.2503
▁Slowly	-11.2503
▁Off	-11.2504
▁suo	-11.2505
▁Mmm	-11.2524
▁knee	-11.2525
=...	-11.2526
found	-11.2538
avor	-11.2538
▁clamber	-11.2538
▁scowl	-11.2538
▁tourist	-11.2539
▁protection	-11.255
▁ponder	-11.2553
▁soap	-11.2558
▁politely	-11.2559
▁tua	-11.2563
▁Flathead	-11.2574
▁investigation	-11.2574
▁vapor	-11.2574
▁faith	-11.2575
▁muddy	-11.2577
▁peak	-11.2578
Very	-11.2583
▁scoop	-11.2583
▁mold	-11.2586
▁Ron	-11.2588
conscious	-11.259
▁relevant	-11.2609
▁smoking	-11.2609
▁stench	-11.2609
▁jam	-11.2625
▁unlike	-11.2635
▁snatch	-11.2636
▁velvet	-11.2645
▁[9:	-11.2645
▁observe	-11.2645
▁notebook	-11.2648
▁vein	-11.2651
▁scrape	-11.2664
▁provoke	-11.2668
ache	-11.2672
▁seeking	-11.2675
▁scatter	-11.2679
▁frustration	-11.2681
▁ingredient	-11.2681
▁triumph	-11.2681
▁dildo	-11.2681
▁favor	-11.2682
aria	-11.2684
idge	-11.2693
▁jug	-11.2709
▁curved	-11.2712
▁Valerie	-11.2717
▁texture	-11.2717
▁Hor	-11.272
▁intently	-11.2722
bili	-11.2728
▁whine	-11.2751
▁economy	-11.2753
▁helicopter	-11.2753
▁hologram	-11.2753
▁wrinkl	-11.2753
▁fragile	-11.2753
▁devour	-11.2753
▁ominous	-11.2753
▁berries	-11.2753
produc	-11.2764
▁killer	-11.2773
▁shrug	-11.2775
▁Cave	-11.2779
▁striking	-11.2789
▁streak	-11.2789
▁sculpture	-11.2789
▁Karl	-11.279
▁Display	-11.279
▁inspect	-11.2793
▁wand	-11.2799
left	-11.2804
talk	-11.2819
▁Computer	-11.2825
▁plugged	-11.2826
▁pulse	-11.2826
fact	-11.2826
▁disabled	-11.2826
▁cheerful	-11.2838
▁utter	-11.2843
esse	-11.2851
▁squeak	-11.2862
▁evident	-11.2862
▁withdraw	-11.2863
▁Year	-11.2871
▁chosen	-11.2875
▁crashes	-11.2882
IGHT	-11.2899
▁Should	-11.2899
▁Terrence	-11.2899
▁examination	-11.2899
▁excitement	-11.2899
▁generation	-11.2899
▁destruction	-11.2899
▁snarl	-11.2899
hang	-11.2906
scene	-11.291
▁provoked	-11.2931
▁folder	-11.2936
▁Hard	-11.2939
▁sauce	-11.2939
▁walkthrough	-11.2941
▁hideous	-11.2943
▁blown	-11.2944
▁relatively	-11.2951
case	-11.2957
▁Station	-11.2967
▁ribbon	-11.2972
▁intricate	-11.2972
▁sembra	-11.2972
▁WHAT	-11.2972
▁theirselves	-11.2972
▁distort	-11.2972
path	-11.2975
▁stolen	-11.2981
▁mast	-11.2981
▁Tree	-11.2985
▁Arch	-11.2985
▁tosses	-11.2998
▁uneven	-11.3006
▁determination	-11.3009
▁wallpaper	-11.3014
▁hopeless	-11.3021
▁Screen	-11.3046
▁Source	-11.3046
▁Santa	-11.305
▁Alice	-11.3052
▁custom	-11.3052
otherwise	-11.3057
▁Unit	-11.3079
MMM	-11.3081
▁George	-11.3084
▁communicate	-11.3084
▁squeal	-11.3084
▁birthday	-11.3084
▁sneer	-11.3085
▁juice	-11.3087
▁bind	-11.3089
▁lone	-11.3106
▁rap	-11.3108
▁extension	-11.3121
▁maintenance	-11.3121
▁Large	-11.3122
▁average	-11.3122
▁greatest	-11.3122
▁Robert	-11.3123
▁crumpled	-11.3135
▁tack	-11.3135
▁intend	-11.3137
▁immediate	-11.3139
▁soot	-11.3148
NounDomain	-11.3159
▁identify	-11.3159
▁sacrifice	-11.3159
▁dangling	-11.3159
▁planning	-11.3162
▁ripple	-11.3162
▁implemented	-11.3163
cco	-11.3183
▁Ten	-11.3183
▁rarely	-11.3187
▁explode	-11.3194
▁junction	-11.3197
▁wedding	-11.3197
▁enchant	-11.3197
▁stew	-11.3203
▁cease	-11.3204
▁shovel	-11.322
life	-11.3229
▁stride	-11.3237
▁gown	-11.3237
▁Sample	-11.3238
▁Order	-11.3243
▁growl	-11.3244
▁haze	-11.3244
▁healthy	-11.3246
▁utterly	-11.3255
▁wad	-11.3257
fiction	-11.3258
Man	-11.326
▁grandfather	-11.3272
▁ineffectual	-11.3272
▁sleeve	-11.3272
▁slender	-11.3272
▁blush	-11.3273
▁policeman	-11.3278
▁fatal	-11.328
▁snatches	-11.3282
▁stud	-11.329
itty	-11.329
▁Jim	-11.3292
odge	-11.3303
maker	-11.3307
▁Europe	-11.3311
▁grandmother	-11.3311
▁according	-11.3311
▁peculiar	-11.3311
▁contract	-11.3311
▁stern	-11.3313
▁insane	-11.3319
▁Pen	-11.3328
FF	-11.3346
▁Douglas	-11.3349
▁wealth	-11.3349
▁(1/	-11.3349
▁server	-11.3357
▁wail	-11.3362
▁cookie	-11.3363
▁DROP	-11.3387
▁assorted	-11.3387
▁intersection	-11.3387
▁Again	-11.3388
▁overcome	-11.3388
IVE	-11.3411
where	-11.3416
▁desperately	-11.3417
▁primitive	-11.3426
▁ninja	-11.3426
▁NPC	-11.3426
▁exciting	-11.3426
▁Jill	-11.3426
Trace	-11.3441
▁possess	-11.3446
▁Unless	-11.3448
Take	-11.3451
▁irregular	-11.3465
▁register	-11.3465
▁season	-11.3467
▁verso	-11.3468
▁Ouch	-11.3473
▁blend	-11.3474
▁PUT	-11.3475
▁Crow	-11.3477
Listen	-11.3484
▁[11	-11.3493
▁Bill	-11.3501
▁backpack	-11.3504
▁gallery	-11.3504
▁subtle	-11.3505
upper	-11.3518
▁dude	-11.3526
▁blame	-11.3527
▁TALK	-11.353
▁Show	-11.3539
▁confident	-11.3543
▁fortunate	-11.3543
▁intelligent	-11.3543
▁suspended	-11.3543
▁blonde	-11.3543
▁sketch	-11.3543
▁exchange	-11.3543
▁pigeon	-11.3543
▁flex	-11.3543
▁slump	-11.3543
NULL	-11.3543
▁anxious	-11.3545
▁dans	-11.3548
▁clasp	-11.3551
eau	-11.3571
▁abstract	-11.3582
▁snort	-11.3582
▁pussy	-11.3582
Wrong	-11.3583
▁insult	-11.3583
▁whirr	-11.3584
▁crisp	-11.3584
▁department	-11.3587
fashioned	-11.3595
new	-11.3599
▁DM	-11.36
▁decoration	-11.3604
▁gotta	-11.3605
stead	-11.3608
▁daemon	-11.3609
etti	-11.3614
▁umbrella	-11.3621
▁indicating	-11.3621
▁Standing	-11.3621
▁chatter	-11.3622
greedy	-11.3622
Action	-11.3633
▁Barb	-11.3637
▁Today	-11.3643
▁role	-11.3644
▁Say	-11.3647
▁reluctant	-11.3661
▁rainbow	-11.3661
▁squirrel	-11.3661
▁groove	-11.3661
▁padlock	-11.3662
▁drum	-11.3672
last	-11.3683
▁Fran	-11.3695
▁Exit	-11.3698
Message	-11.3699
▁delle	-11.37
▁Luckily	-11.3701
▁VERBOSE	-11.3701
▁immense	-11.3701
▁chapel	-11.3701
▁Alex	-11.3707
▁gang	-11.3708
▁Step	-11.3708
▁awaken	-11.372
▁partner	-11.3726
flag	-11.3728
destruct	-11.3729
▁tangled	-11.373
ulating	-11.3735
▁timber	-11.374
▁Saint	-11.3744
▁Giles	-11.3745
▁restrain	-11.3745
▁bike	-11.3747
▁driveway	-11.3748
▁bob	-11.3763
▁forgive	-11.3765
▁farther	-11.3766
agging	-11.3773
▁giggles	-11.378
▁mansion	-11.3781
▁coast	-11.3787
shirt	-11.3796
▁sold	-11.3801
▁marine	-11.3813
▁Geigner	-11.3821
▁exterior	-11.3821
▁Bridge	-11.3821
▁Martin	-11.3823
▁Having	-11.3835
▁lifeless	-11.3853
▁diary	-11.3857
▁BRIEF	-11.3861
▁elaborate	-11.3861
▁kitten	-11.3861
▁vegetation	-11.3861
▁perfume	-11.3861
▁Heaven	-11.3861
▁devil	-11.3861
▁obtain	-11.3863
▁wool	-11.3867
▁lord	-11.3867
▁decent	-11.387
glass	-11.3882
▁pride	-11.3884
▁chose	-11.3891
▁Matthew	-11.3901
▁System	-11.3901
▁suspicion	-11.3901
▁vampire	-11.3901
▁Super	-11.3907
▁finest	-11.3913
▁purse	-11.3933
▁Gabriel	-11.3942
▁assault	-11.3942
▁cubicle	-11.3942
▁squirm	-11.3942
▁technical	-11.3942
▁inviting	-11.3942
▁dialect	-11.3942
▁Deini	-11.3945
OUR	-11.3947
Scope	-11.3952
Mi	-11.3958
plate	-11.3973
▁slit	-11.3979
▁Conan	-11.398
▁annoyed	-11.3983
▁survey	-11.3983
▁slick	-11.3983
etta	-11.3983
▁DOOR	-11.3985
▁vital	-11.3987
▁struck	-11.3987
▁Emma	-11.3987
▁princess	-11.3988
▁madness	-11.3992
▁vase	-11.4
▁hunger	-11.401
▁traditional	-11.4015
help	-11.4018
▁assistant	-11.4024
▁segment	-11.4024
▁Garden	-11.4025
▁piss	-11.4032
▁grateful	-11.4049
active	-11.406
▁painfully	-11.4064
▁dynamic	-11.4065
▁vessel	-11.4065
▁Science	-11.4065
▁plummet	-11.4065
▁banana	-11.4065
▁digital	-11.4066
▁Irene	-11.4067
▁fastened	-11.4069
▁chaos	-11.4071
▁tramp	-11.4073
▁Key	-11.4076
▁assure	-11.4085
ctic	-11.4088
▁(2/	-11.4106
▁inscribed	-11.4106
▁GNA	-11.4107
▁Chub	-11.4109
▁thou	-11.411
▁begun	-11.4119
▁minor	-11.4127
AGE	-11.4133
▁explanation	-11.4148
▁pavement	-11.4148
▁Harry	-11.4151
▁poem	-11.4158
EST	-11.4167
about	-11.4174
grade	-11.4175
▁uh	-11.4182
▁Infocom	-11.4189
▁married	-11.419
▁pierce	-11.419
▁steer	-11.419
▁Somewhere	-11.4191
▁Max	-11.4191
gress	-11.4193
▁weeds	-11.4194
▁demo	-11.4211
▁numb	-11.4215
▁community	-11.4231
▁refreshing	-11.4231
▁Larry	-11.4231
▁Break	-11.4231
▁telescope	-11.4231
▁crook	-11.4235
▁horizontal	-11.4237
▁Unlike	-11.4239
▁Must	-11.4239
▁Plan	-11.4252
▁surf	-11.4252
green	-11.4253
ancy	-11.426
▁sparkle	-11.4265
▁Egypt	-11.4273
▁SUPERBRIEF	-11.4273
▁razor	-11.4273
▁Spider	-11.4273
▁crunch	-11.4275
▁ragged	-11.4275
▁NEW	-11.4276
▁dawn	-11.4279
▁functional	-11.4283
▁Stone	-11.4288
▁Upon	-11.4295
▁stale	-11.43
▁School	-11.4315
▁lobster	-11.4315
▁medicine	-11.4315
▁battered	-11.4316
▁amulet	-11.4316
▁raven	-11.4316
▁fading	-11.4317
192	-11.4319
▁moonlight	-11.432
▁crank	-11.4321
▁slimy	-11.4328
▁stake	-11.4354
▁Effects	-11.4358
▁bizarre	-11.4358
▁equipped	-11.4358
▁receptacle	-11.4358
▁society	-11.4358
▁Palace	-11.4358
▁bundle	-11.4358
▁tasty	-11.4358
▁ritual	-11.4358
▁snack	-11.4358
▁mailbox	-11.4358
▁qualc	-11.4369
▁Scan	-11.438
▁wallet	-11.4383
▁increasing	-11.44
▁associate	-11.44
▁elbow	-11.44
▁numerous	-11.44
ville	-11.4401
▁tel	-11.4402
▁pebble	-11.4403
▁sparkling	-11.4408
▁distinguish	-11.4414
▁introduce	-11.4417
drop	-11.4419
Tell	-11.4422
something	-11.4422
WALK	-11.4443
▁witness	-11.4443
▁Jesus	-11.4444
▁patron	-11.4447
▁impatiently	-11.4457
MMMM	-11.4458
▁render	-11.4465
Write	-11.4473
▁cautiously	-11.4486
▁circumstances	-11.4486
▁rhythm	-11.4486
▁species	-11.449
▁winning	-11.449
▁electricity	-11.4491
▁shopping	-11.4493
▁flail	-11.4499
rice	-11.4508
▁slime	-11.451
▁CAN	-11.4511
ngel	-11.4528
▁dungeon	-11.4529
▁swarm	-11.453
▁chief	-11.4531
▁hastily	-11.4532
isce	-11.4539
LINE	-11.4555
▁Hill	-11.4565
▁logo	-11.4571
▁Marshall	-11.4572
▁ambiguous	-11.4572
▁explosive	-11.4572
▁infinite	-11.4572
▁shuffle	-11.4573
▁Stairs	-11.4573
▁skirt	-11.4573
▁droid	-11.4573
▁rustling	-11.4578
voca	-11.4589
430	-11.4591
▁surprising	-11.4596
With	-11.4598
▁Tea	-11.4598
▁Competition	-11.4616
▁chandelier	-11.4616
▁engulf	-11.4616
▁courage	-11.4616
▁positive	-11.4617
▁Pete	-11.4617
▁duct	-11.4618
▁walkway	-11.4638
▁Earl	-11.4639
scope	-11.4644
▁Steve	-11.4655
▁MY	-11.4657
▁rickety	-11.466
▁tangle	-11.4674
Really	-11.4686
▁combat	-11.4692
bug	-11.4702
▁neighbor	-11.4703
▁Jenny	-11.4703
▁sinister	-11.4703
front	-11.4703
▁gulp	-11.4704
▁Underground	-11.4704
▁talent	-11.4704
ECT	-11.4707
▁copies	-11.4709
rift	-11.4726
▁motionless	-11.4738
▁Aloysius	-11.4748
▁gigantic	-11.4748
▁impressed	-11.4748
▁serpent	-11.4748
▁modesty	-11.4748
▁valve	-11.4748
▁barren	-11.4748
▁betray	-11.475
▁sap	-11.475
TOR	-11.4754
▁headache	-11.4754
▁whisk	-11.4756
▁native	-11.4765
watch	-11.4765
▁tide	-11.4766
29	-11.4768
from	-11.4771
cake	-11.4784
▁crater	-11.479
▁convention	-11.4792
▁extinguish	-11.4792
▁responsible	-11.4792
▁defense	-11.4792
▁Square	-11.4792
▁cotton	-11.4792
▁resident	-11.4792
▁therefore	-11.4792
▁zip	-11.4793
▁Court	-11.4793
▁sought	-11.4793
class	-11.4802
▁smashes	-11.481
▁Force	-11.481
frame	-11.4816
▁Roman	-11.4816
▁crow	-11.4819
▁billow	-11.482
zar	-11.4821
▁alcohol	-11.4836
▁elephant	-11.4836
▁professional	-11.4836
▁tattered	-11.4836
▁Richard	-11.4836
▁disguise	-11.4836
▁hovers	-11.4837
▁arising	-11.4837
▁polish	-11.4848
▁estate	-11.485
▁bruise	-11.4857
scen	-11.486
USE	-11.4865
▁singular	-11.4879
▁According	-11.4881
▁tremendous	-11.4881
▁vacuum	-11.4881
▁antenna	-11.4881
▁Royal	-11.4881
▁beetle	-11.4881
▁visual	-11.4881
▁classroom	-11.4894
▁frequent	-11.4926
▁influence	-11.4926
▁Muddy	-11.4926
▁Either	-11.4926
▁pathetic	-11.4926
▁Morgan	-11.4926
▁expectantly	-11.4927
▁furiously	-11.4927
▁transfer	-11.4927
▁trench	-11.4928
▁rotten	-11.4928
▁lurch	-11.4931
Parser	-11.4932
▁grew	-11.4933
▁fox	-11.4935
▁unfortunate	-11.4951
▁max	-11.4955
▁bicycle	-11.4971
▁despair	-11.4971
▁glancing	-11.4971
▁unfamiliar	-11.4971
▁Shadow	-11.4971
▁prominent	-11.4971
▁smack	-11.4971
▁stump	-11.4971
▁affection	-11.4979
▁THEN	-11.4993
▁Cru	-11.5001
just	-11.5008
▁reception	-11.5014
▁symbolic	-11.5015
▁illusion	-11.5016
▁necklace	-11.5016
▁patrol	-11.5016
▁Chief	-11.5017
▁vest	-11.5019
▁Judg	-11.5031
▁tab	-11.5054
▁Lestrade	-11.5061
▁arrangement	-11.5061
▁comparison	-11.5061
▁essential	-11.5061
▁mixture	-11.5063
▁GIVE	-11.5064
▁metres	-11.5066
▁folds	-11.5067
▁hinge	-11.5072
31	-11.5085
▁dread	-11.5095
▁haul	-11.5097
▁Mariko	-11.5107
▁librarian	-11.5107
▁parchment	-11.5107
▁resolve	-11.5107
▁steadily	-11.5107
▁whimper	-11.5107
▁Phil	-11.5107
▁briefcase	-11.5108
▁jammed	-11.5108
▁review	-11.5113
▁elf	-11.5122
18	-11.5125
▁splashes	-11.5127
▁relative	-11.5133
screen	-11.5134
▁Special	-11.5153
▁competition	-11.5153
▁crimson	-11.5153
▁merchant	-11.5153
▁smirk	-11.5153
▁admire	-11.5153
▁meadow	-11.5153
▁bellows	-11.5153
▁scorch	-11.5154
▁properties	-11.5154
▁crea	-11.5172
Object	-11.518
COM	-11.5198
▁instinct	-11.5199
▁overgrown	-11.5199
▁WAIT	-11.5199
▁preparing	-11.5199
▁ourselves	-11.5199
▁realizing	-11.5202
▁foam	-11.5208
▁prick	-11.521
▁basin	-11.5217
▁neighbour	-11.5245
▁parallel	-11.5245
▁sewer	-11.5246
Timers	-11.5246
▁crypt	-11.5249
▁Metal	-11.525
▁tighten	-11.5252
▁extreme	-11.5272
▁dimension	-11.5276
▁mild	-11.5277
▁scrub	-11.5277
▁civil	-11.5292
▁escort	-11.5292
▁vomit	-11.5292
▁incident	-11.5292
▁foreign	-11.5292
▁favourite	-11.5292
▁crumbling	-11.5293
▁critical	-11.5294
▁scanner	-11.5295
▁nella	-11.5299
▁outfit	-11.5299
▁cement	-11.5302
▁accent	-11.5302
▁rocket	-11.5304
▁cheat	-11.5305
▁Manag	-11.5313
▁additional	-11.5314
Would	-11.5321
LIC	-11.5323
plane	-11.5325
▁University	-11.5339
▁celebra	-11.5339
▁gradually	-11.5339
▁microwave	-11.5339
▁savage	-11.5339
▁graveyard	-11.5339
▁interface	-11.534
▁fangs	-11.534
▁socks	-11.5345
▁prevention	-11.5348
▁Thick	-11.5349
▁[102	-11.5349
rimmed	-11.5354
▁bold	-11.5355
▁Coke	-11.5357
ifies	-11.5376
paper	-11.5376
▁studio	-11.5378
▁avail	-11.5383
▁embrace	-11.5386
▁rubbish	-11.5386
▁squawk	-11.5386
▁shroud	-11.5386
▁fifth	-11.5386
▁freak	-11.5386
▁goodbye	-11.5386
▁session	-11.5386
▁Brown	-11.5388
▁everybody	-11.5389
▁Half	-11.539
▁pouch	-11.539
100]	-11.5407
ACT	-11.5416
▁woke	-11.5416
▁convenient	-11.5433
▁Further	-11.5433
▁eternal	-11.5433
▁clump	-11.5433
▁pluck	-11.5433
▁niente	-11.5434
▁keen	-11.5436
▁Holly	-11.5438
▁selection	-11.544
▁secretary	-11.5446
born	-11.5453
vu	-11.5465
▁volcano	-11.5477
▁PUSH	-11.548
▁Plotkin	-11.548
▁bookshelf	-11.548
▁piercing	-11.548
▁Central	-11.548
▁Company	-11.548
▁deprecat	-11.548
▁Leonine	-11.548
▁Chuck	-11.5484
▁logical	-11.5485
▁niche	-11.5489
emetry	-11.5491
▁coach	-11.5499
▁Wind	-11.5519
▁strewn	-11.5528
▁pearl	-11.5533
▁origin	-11.5536
Nothing	-11.5565
Never	-11.5569
▁Ordinary	-11.5576
▁architect	-11.5576
▁conclude	-11.5576
▁contraption	-11.5576
▁perimeter	-11.5576
▁ultimate	-11.5576
▁acquire	-11.5576
▁randomisation	-11.5576
▁footprints	-11.5576
▁slack	-11.5576
▁NEVER	-11.5576
free	-11.5577
▁straighten	-11.5587
human	-11.5622
▁grammar	-11.5624
▁contrast	-11.5624
▁cui	-11.5626
▁broom	-11.5632
▁clamp	-11.5633
▁Eric	-11.5635
▁zoo	-11.5642
▁mechanic	-11.5655
▁encourage	-11.5672
▁ignoring	-11.5672
▁struggling	-11.5672
▁essence	-11.5672
▁introduction	-11.5673
▁Otherwise	-11.5673
▁quote	-11.5674
▁asshole	-11.5674
▁Adar	-11.5676
▁mound	-11.5682
▁anybody	-11.5687
position	-11.5712
▁Revolution	-11.5721
▁ancestor	-11.5721
▁gargoyle	-11.5721
▁nostrils	-11.5721
▁Choice	-11.5721
▁thrill	-11.5721
▁crowbar	-11.5721
▁adult	-11.5721
▁profit	-11.5721
▁Jason	-11.5722
▁fiddle	-11.5723
testers	-11.5724
▁potato	-11.5724
▁Kind	-11.5725
▁performance	-11.5727
▁basically	-11.573
▁tidy	-11.5732
▁Floor	-11.5732
▁crap	-11.5761
yzzy	-11.5769
▁triangular	-11.5769
▁freezing	-11.577
▁oblig	-11.577
▁strict	-11.577
▁thigh	-11.5772
▁Charlotte	-11.5818
▁consequence	-11.5818
▁goggles	-11.5819
▁Point	-11.5828
▁interaction	-11.583
step	-11.5838
▁suggestion	-11.5861
Nice	-11.5866
▁August	-11.5868
▁Emilia	-11.5868
▁unnoticed	-11.5868
▁victory	-11.5868
▁distress	-11.5868
▁midnight	-11.5868
▁goblet	-11.5869
▁Kill	-11.587
azione	-11.5879
graph	-11.5897
▁automatic	-11.5917
▁benefit	-11.5917
▁cobweb	-11.5917
▁Sterling	-11.5917
▁Stuart	-11.5918
▁rapid	-11.5918
▁studies	-11.5919
▁Edward	-11.5923
romance	-11.5935
stream	-11.5952
▁defend	-11.5953
▁rent	-11.5957
▁chime	-11.596
Comp	-11.5961
▁ceramic	-11.5967
▁furnace	-11.5967
▁intruder	-11.5967
▁attendant	-11.5973
▁relationship	-11.5976
▁icon	-11.598
▁incredible	-11.6017
▁stairwell	-11.6017
▁childhood	-11.6017
▁SAVE	-11.6017
▁module	-11.6017
▁trophy	-11.6017
▁Church	-11.6017
▁warrant	-11.6019
▁Dur	-11.602
▁bond	-11.6039
fresh	-11.6043
▁inhale	-11.6046
▁rustle	-11.605
Giving	-11.6053
▁bake	-11.6064
Estrange	-11.6067
▁accurate	-11.6067
▁dispenser	-11.6067
▁emerald	-11.6067
▁enemies	-11.6067
▁dissipate	-11.6067
▁escaping	-11.6067
▁senza	-11.6067
▁tremble	-11.6067
▁Select	-11.6067
▁jeans	-11.6067
▁Click	-11.6073
▁reasonably	-11.6078
▁thorough	-11.6098
▁British	-11.6118
▁Cheryl	-11.6118
▁batteries	-11.6118
▁criminal	-11.6118
Excuse	-11.6118
▁boyfriend	-11.6118
▁chirp	-11.6118
48	-11.6122
▁hopefully	-11.6129
▁seize	-11.6144
▁Japanese	-11.6168
▁frightened	-11.6168
▁Already	-11.6168
▁crossbow	-11.6168
▁kingdom	-11.6168
Pretty	-11.617
▁comfortably	-11.617
▁thug	-11.6173
▁moose	-11.6177
▁agony	-11.6181
▁extract	-11.6184
▁faucet	-11.6219
▁vandal	-11.6219
▁cousin	-11.6219
▁footnote	-11.622
▁restricted	-11.622
▁HAVE	-11.622
▁dragging	-11.622
▁Soft	-11.6221
▁ivy	-11.6223
▁lining	-11.6226
compiled	-11.6227
▁poking	-11.6229
▁marvel	-11.6233
pipe	-11.6234
▁instruction	-11.6263
▁Number	-11.6271
▁breakfast	-11.6271
▁expanse	-11.6271
▁radiation	-11.6271
▁precarious	-11.6271
▁wagon	-11.6271
▁glisten	-11.6271
▁Daniel	-11.6271
▁Power	-11.6271
PAR	-11.6271
▁blaze	-11.6274
▁Flint	-11.6275
▁unnatural	-11.6275
▁entra	-11.6284
▁Mist	-11.6291
uoi	-11.6295
OOM	-11.6314
▁Author	-11.6322
▁Obviously	-11.6322
▁Toranaga	-11.6322
▁fantastic	-11.6322
▁overflow	-11.6322
▁pepper	-11.6322
▁taught	-11.6322
▁Italian	-11.6323
▁teleport	-11.6323
▁triangle	-11.6324
▁chalk	-11.6324
▁firing	-11.6334
▁198	-11.6339
▁uncover	-11.6352
▁Base	-11.6361
black	-11.6364
▁sensitivity	-11.6374
▁universal	-11.6374
▁violet	-11.6374
▁ladies	-11.6374
▁THIS	-11.6375
▁superior	-11.6375
▁Beneath	-11.6375
▁Greek	-11.6376
▁hostile	-11.6376
▁copier	-11.6376
▁graphic	-11.6377
▁granted	-11.638
▁agreement	-11.6392
▁Eye	-11.6412
establish	-11.6426
▁Crusader	-11.6426
▁remarkable	-11.6426
▁chapter	-11.6426
▁fixture	-11.6429
▁Latin	-11.6429
▁Guide	-11.643
style	-11.6431
▁expand	-11.6434
▁Auto	-11.6444
second	-11.6471
▁gross	-11.6474
▁disambiguation	-11.6478
▁translucent	-11.6478
▁Instruction	-11.6479
▁appeal	-11.6479
▁Yabu	-11.6479
▁spire	-11.6487
invoke	-11.6498
quarters	-11.6519
▁prince	-11.6528
▁destin	-11.6529
▁CLOSE	-11.6531
▁stereo	-11.6531
▁bulkhead	-11.6531
▁flank	-11.6531
▁mould	-11.6532
▁colorful	-11.6533
▁alright	-11.6536
▁freestanding	-11.654
▁correspond	-11.6583
▁artificial	-11.6584
▁worship	-11.6584
▁vibrate	-11.6584
▁whilst	-11.6584
▁Jonas	-11.6584
▁amusing	-11.6585
Random	-11.6585
▁Extend	-11.6588
▁brace	-11.6609
Glass	-11.6611
▁conclusion	-11.6637
ambi	-11.6639
▁plush	-11.6644
▁Corridor	-11.6691
▁cemetery	-11.6691
▁undergrowth	-11.6691
▁frantically	-11.6691
▁Roger	-11.6697
▁Return	-11.6697
▁dinosaur	-11.6744
▁greasy	-11.6744
▁client	-11.6745
▁gym	-11.6746
▁crane	-11.6752
▁June	-11.6754
▁peck	-11.6761
▁patience	-11.6798
▁spectacular	-11.6798
▁scurry	-11.6798
▁radiate	-11.6799
▁(3/	-11.6799
▁disconnect	-11.68
▁accidentally	-11.6801
▁fetch	-11.6803
Guess	-11.685
▁Entrance	-11.6853
▁NOTHING	-11.6853
▁gadget	-11.6853
▁intelligence	-11.6853
▁Enkidu	-11.6853
▁shrink	-11.6853
▁wanna	-11.6853
▁workshop	-11.6853
▁bathtub	-11.6853
define	-11.6853
▁twig	-11.6853
▁Jimmy	-11.6854
▁kidding	-11.6854
▁grinning	-11.6855
▁canopy	-11.6856
▁Common	-11.6856
▁resistance	-11.6857
▁oppos	-11.6878
collecting	-11.6887
▁Anthony	-11.6907
▁Chinese	-11.6907
▁appointment	-11.6907
▁impenetrable	-11.6907
▁Duncan	-11.6907
▁England	-11.6907
▁revenge	-11.6907
▁flaming	-11.6908
▁Wolf	-11.6909
▁burrow	-11.691
ossa	-11.693
▁unplug	-11.6951
examine	-11.6953
▁adjacent	-11.6962
▁commercial	-11.6962
▁threshold	-11.6962
▁grabbing	-11.6964
▁carrot	-11.6964
▁advise	-11.6964
▁confront	-11.6965
▁fiery	-11.6966
Warning	-11.7008
▁hunch	-11.7018
▁Among	-11.7018
▁beacon	-11.7018
Fool	-11.7028
▁cind	-11.7051
description	-11.7065
Like	-11.7067
▁relieved	-11.7073
▁reappear	-11.7073
▁Secret	-11.7073
▁dismiss	-11.7073
▁ooze	-11.7073
▁etched	-11.7073
▁miniature	-11.7074
▁occurred	-11.7076
▁nudge	-11.7077
▁riddle	-11.7079
▁Horse	-11.7082
▁START	-11.7129
▁acquaint	-11.7129
▁contempt	-11.7129
▁continuing	-11.7129
▁mahogany	-11.7129
▁tapestry	-11.7129
▁charred	-11.7129
▁dominated	-11.7129
▁attitude	-11.713
▁obey	-11.7132
▁taxi	-11.7132
▁mural	-11.7136
Speak	-11.7136
▁locket	-11.7144
▁snug	-11.7169
▁occasion	-11.7177
filled	-11.7177
▁ALWAYS	-11.7185
▁ANYTHING	-11.7185
▁deafening	-11.7185
▁diagram	-11.7185
▁denotes	-11.7185
▁descent	-11.7192
behind	-11.7225
Could	-11.7234
figure	-11.7234
Changes	-11.7239
ERROR	-11.7242
▁orevore	-11.7242
▁vibration	-11.7242
▁avenue	-11.7242
▁penetrate	-11.7242
▁Condition	-11.7242
▁Location	-11.7242
▁fumble	-11.7242
▁Guild	-11.7242
▁Margot	-11.7242
▁quipping	-11.7245
▁Lying	-11.7245
▁wisp	-11.7249
NK	-11.7251
▁Kincaid	-11.7299
▁Melanie	-11.7299
▁bubbling	-11.7299
▁curiosity	-11.7299
▁frightening	-11.7299
▁trousers	-11.7299
▁hrpl	-11.7299
▁ravine	-11.7299
▁Silver	-11.7299
▁Police	-11.7299
cogniz	-11.7299
▁glory	-11.7301
control	-11.7353
▁Arthur	-11.7356
▁Sylvester	-11.7356
▁alternative	-11.7356
▁crevice	-11.7356
▁Museum	-11.7356
▁clench	-11.7356
▁swipe	-11.7356
▁moans	-11.7357
▁latter	-11.7358
▁Word	-11.7358
aggio	-11.7399
▁birth	-11.7413
▁Mistletoe	-11.7413
▁silhouette	-11.7413
▁sprinkle	-11.7413
▁ELSE	-11.7413
▁pendant	-11.7413
▁Eastern	-11.7413
▁placing	-11.7413
▁Dream	-11.7413
▁churn	-11.7414
▁jolt	-11.7414
▁wobble	-11.7414
Every	-11.7464
speak	-11.7465
Those	-11.7466
▁assistance	-11.7471
▁monstrous	-11.7471
▁sediment	-11.7471
▁identity	-11.7471
▁cycle	-11.7471
▁gauge	-11.7471
▁asteroid	-11.7471
▁possessive	-11.7475
▁starboard	-11.7476
▁Rather	-11.7476
▁stub	-11.7478
▁lizard	-11.7529
▁draft	-11.7529
▁thrash	-11.7529
▁Field	-11.7529
▁Duffy	-11.7529
▁hovering	-11.7529
▁Western	-11.753
▁Sadly	-11.753
▁ensure	-11.753
▁smug	-11.7532
▁erase	-11.7533
▁feast	-11.7535
▁serving	-11.7535
▁disorient	-11.7546
direct	-11.7566
▁absolute	-11.7568
chamber	-11.7582
UNCTION	-11.7588
▁Cersei	-11.7588
▁McDonald	-11.7588
▁indicator	-11.7588
▁industrial	-11.7588
▁laundry	-11.7588
▁nonsense	-11.7588
▁marriage	-11.7588
▁nonetheless	-11.7588
▁glorious	-11.7588
UBE	-11.7588
▁threw	-11.7588
▁Indian	-11.7588
▁yarn	-11.759
▁plague	-11.759
▁rumor	-11.7592
▁snapping	-11.7592
.'??	-11.7599
▁subsid	-11.7642
Hagerston	-11.7646
▁Hamilton	-11.7646
▁Occasionally	-11.7646
▁SAY	-11.7647
▁Text	-11.7647
▁loyal	-11.7647
▁hypo	-11.7648
▁stress	-11.7651
▁France	-11.766
▁Security	-11.7706
▁TURN	-11.7706
▁describing	-11.7706
▁lecture	-11.7706
Grammar	-11.7706
▁woven	-11.7706
▁Lower	-11.7706
▁plasma	-11.7706
▁audible	-11.7706
▁sideways	-11.7708
▁sopra	-11.771
▁locate	-11.7733
worm	-11.7761
▁importance	-11.7765
▁sneeze	-11.7765
▁specimen	-11.7765
▁wrought	-11.7765
▁rectangle	-11.7765
▁wicked	-11.7765
▁knives	-11.7765
▁mortar	-11.7765
▁hilt	-11.7766
▁swoop	-11.7781
archive	-11.7817
▁foliage	-11.7825
▁samurai	-11.7825
▁scribble	-11.7825
▁ventilation	-11.7825
▁exotic	-11.7825
▁indication	-11.7826
▁suitcase	-11.7826
▁Messages	-11.7828
▁stray	-11.7829
▁introduc	-11.7862
stitution	-11.7885
Combining	-11.7885
▁approximately	-11.7885
▁fantasy	-11.7885
▁fluorescent	-11.7885
▁wolves	-11.7885
▁beckons	-11.7885
▁feeble	-11.7885
▁editor	-11.7885
▁April	-11.7885
▁sacred	-11.7885
▁goddess	-11.7885
▁vacant	-11.7885
▁wield	-11.7885
▁divine	-11.7885
▁ANY	-11.7885
▁clauses	-11.7885
▁raising	-11.7885
▁Lisa	-11.7888
▁trolley	-11.7888
▁garlic	-11.7888
ologist	-11.7889
evolv	-11.7911
▁impatient	-11.7926
:::::	-11.7938
▁instruct	-11.7943
▁Hopefully	-11.7946
▁Jeffrey	-11.7946
▁Maartje	-11.7946
▁religious	-11.7946
▁unicorn	-11.7946
▁borrow	-11.7946
▁interroga	-11.7946
▁adapt	-11.7947
▁Front	-11.7947
▁excess	-11.7947
connect	-11.7949
Parsing	-11.795
scribe	-11.7955
daemons	-11.7966
▁reconsider	-11.798
▁POSI	-11.8007
▁UNDER	-11.8007
▁pouvez	-11.8007
▁wisdom	-11.8007
▁warehouse	-11.8007
▁sputter	-11.8007
▁disaster	-11.8007
▁SENS	-11.8007
▁Scoring	-11.8007
▁Indeed	-11.8007
hyp	-11.8013
Window	-11.8033
▁CONDITION	-11.8068
ccompanied	-11.8068
▁Attaching	-11.8068
▁Pattern	-11.8068
▁Regular	-11.8068
▁Successful	-11.8068
▁evaporate	-11.8068
▁monument	-11.8068
▁scissors	-11.8068
▁terrified	-11.8068
▁workbench	-11.8068
▁operating	-11.8068
▁miserable	-11.8068
▁imposing	-11.8068
▁fumes	-11.8069
▁bracelet	-11.8069
▁dominates	-11.807
▁Building	-11.813
▁happiness	-11.813
▁proprietor	-11.813
▁tranquil	-11.813
▁WEAR	-11.813
▁peanut	-11.813
▁smudge	-11.813
▁approve	-11.813
▁composed	-11.813
▁Hanging	-11.813
▁girlfriend	-11.8131
▁idol	-11.8132
▁plaza	-11.8132
▁envelop	-11.8174
▁America	-11.8175
▁Plat	-11.8179
Outside	-11.8189
▁Between	-11.8192
▁Keegan	-11.8192
▁damaging	-11.8192
▁decomposition	-11.8192
▁genuine	-11.8192
▁occupies	-11.8192
▁trumpet	-11.8192
▁university	-11.8192
▁possibility	-11.8192
▁reddish	-11.8192
▁creative	-11.8193
▁puppy	-11.8194
▁TAB	-11.825
Adjudicat	-11.8255
MERS	-11.8255
▁confusing	-11.8255
▁miracle	-11.8255
▁observation	-11.8255
▁scientific	-11.8255
▁splatter	-11.8255
▁hurrie	-11.8255
▁continua	-11.8255
▁reckon	-11.8255
▁invade	-11.8277
▁interpret	-11.8298
TAKE	-11.8316
After	-11.8316
▁reindeer	-11.8317
▁vulture	-11.8317
▁Swimming	-11.8317
▁handkerchief	-11.8317
▁revolver	-11.8317
▁ivory	-11.8317
▁flavor	-11.8317
▁recipe	-11.8318
▁glaring	-11.8318
▁mourn	-11.8318
ooooo	-11.8318
▁Esther	-11.8318
▁whiskey	-11.8318
▁grimace	-11.8319
▁trembling	-11.8319
▁tomato	-11.8322
▁Jewel	-11.8333
restrict	-11.8352
▁Empty	-11.8381
▁affixed	-11.8381
▁protrude	-11.8381
▁unsupported	-11.8381
▁yield	-11.8381
▁FISH	-11.8381
▁Verlac	-11.8381
▁ignition	-11.8381
▁choking	-11.8381
▁waft	-11.8381
▁pulp	-11.8381
▁Ingol	-11.8393
haired	-11.8401
command	-11.8444
▁UNLOCK	-11.8444
▁syringe	-11.8444
▁vortex	-11.8444
udolph	-11.8444
▁fidget	-11.8444
▁confess	-11.8444
▁compared	-11.8445
▁Susan	-11.8445
▁torso	-11.845
volt	-11.8452
NONL	-11.8489
▁stole	-11.8494
complete	-11.8508
▁Duggers	-11.8509
▁Kropkin	-11.8509
▁doorknob	-11.8509
▁napkin	-11.8509
▁wriggle	-11.8509
▁buddy	-11.8509
▁VARI	-11.8509
▁breach	-11.8509
▁sorrow	-11.8509
▁identifie	-11.851
▁retire	-11.8511
▁dingy	-11.8513
Shut	-11.8515
▁exhaust	-11.8535
Casting	-11.8565
friend	-11.8571
▁deliberate	-11.8573
▁alphabet	-11.8573
▁CHOICE	-11.8573
▁Cynthia	-11.8573
▁Nikolai	-11.8573
▁flimsy	-11.8573
▁makeshift	-11.8573
▁oblivious	-11.8573
▁Natural	-11.8573
▁sloping	-11.8573
▁assignment	-11.8573
▁mercy	-11.8573
FIER	-11.8573
▁Place	-11.8574
▁stunned	-11.8574
▁repeatedly	-11.8575
▁programmed	-11.8575
▁unsure	-11.8576
▁loot	-11.8589
pitched	-11.8593
▁janitor	-11.8638
▁cylindrical	-11.8638
▁deallocation	-11.8638
▁embarrassed	-11.8638
▁eternity	-11.8638
▁exquisite	-11.8638
▁neighborhood	-11.8638
▁scholar	-11.8638
Merging	-11.8638
▁LOCK	-11.8638
▁awesome	-11.8638
▁swept	-11.8638
▁Francis	-11.8638
▁crumbs	-11.8638
written	-11.8638
▁urgent	-11.8639
▁Planet	-11.864
TIVITY	-11.8703
▁calendar	-11.8703
▁handwriting	-11.8703
▁majestic	-11.8703
▁monorail	-11.8703
▁perspective	-11.8703
multiexcept	-11.8703
▁Rewind	-11.8703
▁trough	-11.8703
▁Level	-11.8703
▁ancora	-11.8703
▁essere	-11.8704
First	-11.8704
▁beige	-11.8705
▁detach	-11.8705
Humbaba	-11.8769
▁RANGE	-11.8769
▁THINK	-11.8769
▁altogether	-11.8769
▁concentration	-11.8769
▁facility	-11.8769
▁intensity	-11.8769
▁outstretched	-11.8769
▁recognition	-11.8769
▁furnished	-11.8769
▁generous	-11.8769
▁political	-11.8769
▁QUANTI	-11.8769
▁capsule	-11.8769
▁swivel	-11.8769
▁soggy	-11.8769
ibility	-11.8833
▁Galactic	-11.8835
▁Jonathan	-11.8835
▁LITERAL	-11.8835
▁galaxy	-11.8835
▁insensitivity	-11.8835
▁obelisk	-11.8835
▁satisfaction	-11.8835
▁sorcerer	-11.8835
▁spectacle	-11.8835
▁population	-11.8835
▁Brief	-11.8835
▁Quickly	-11.8835
▁scamper	-11.8835
▁teenage	-11.8835
▁bloom	-11.8835
▁spacious	-11.8836
negated	-11.8837
wheel	-11.8837
multiinside	-11.8878
▁bulk	-11.8881
multiheld	-11.8901
▁neglect	-11.8902
▁scrawled	-11.8902
▁survival	-11.8902
▁alternate	-11.8902
ubexp	-11.8902
▁romantic	-11.8902
▁tavern	-11.8902
▁Smoke	-11.8902
▁Alien	-11.8903
Allow	-11.8958
▁SOUTHEAST	-11.8969
▁conversions	-11.8969
▁inspired	-11.8969
▁Alexander	-11.8969
▁melody	-11.8969
▁Derek	-11.8969
▁salesman	-11.897
Enough	-11.8971
currently	-11.8972
▁rasp	-11.8986
▁Rebecca	-11.9037
▁fingertips	-11.9037
▁uncomfortably	-11.9037
▁assassin	-11.9037
▁utility	-11.9037
▁hamster	-11.9037
▁stomp	-11.9037
▁rattling	-11.9037
▁slither	-11.9038
▁Kweek	-11.9105
▁dwarf	-11.9105
▁newsgroup	-11.9105
▁territory	-11.9105
oncatenate	-11.9105
▁slept	-11.9105
▁Kevin	-11.9105
▁shotgun	-11.9105
▁soothing	-11.9106
▁Mount	-11.9106
storm	-11.911
▁holiday	-11.9173
▁opponent	-11.9173
▁fuzzy	-11.9173
▁Ancient	-11.9173
▁molto	-11.9173
▁Paddy	-11.9173
▁replied	-11.9173
▁Ethan	-11.9174
▁Jessica	-11.9242
▁NORTHEAST	-11.9242
▁billiard	-11.9242
▁moustache	-11.9242
▁protruding	-11.9242
▁turtle	-11.9242
▁tobacco	-11.9242
▁Carefully	-11.9242
▁biggest	-11.9242
▁generic	-11.9243
▁cauldron	-11.9312
▁handcuffs	-11.9312
▁unremarkable	-11.9312
▁gnaw	-11.9312
▁sprout	-11.9312
▁lawyer	-11.9312
▁saliva	-11.9312
▁confidence	-11.9382
▁porcelain	-11.9382
▁goddam	-11.9382
▁arriving	-11.9382
▁(4/	-11.9382
DSA	-11.9382
Great	-11.9387
▁Conversation	-11.9452
▁Winston	-11.9452
▁insubstantial	-11.9452
▁reinforce	-11.9452
▁explicit	-11.9452
▁glimmer	-11.9452
▁shrine	-11.9452
▁votre	-11.9452
▁civilization	-11.9452
▁Trust	-11.9452
▁assigned	-11.9452
▁cancel	-11.9453
..........	-11.9463
▁Malcolm	-11.9523
▁demonstration	-11.9523
▁disintegrate	-11.9523
▁fascinating	-11.9523
▁horribly	-11.9523
▁perceive	-11.9523
▁Spanish	-11.9523
▁inclined	-11.9523
▁hurriedly	-11.9523
▁recoil	-11.9523
▁belief	-11.9523
▁unmarked	-11.9523
▁racing	-11.9523
▁stoop	-11.9524
▁Irish	-11.9525
zioni	-11.9526
rselves	-11.9553
▁Property	-11.9594
▁Purpose	-11.9594
▁manufacture	-11.9594
▁schedule	-11.9594
▁Silence	-11.9594
▁blazing	-11.9594
▁Pratt	-11.9595
inspiring	-11.9595
▁pursue	-11.9595
▁teddy	-11.9595
▁temptation	-11.9595
▁Travel	-11.9595
Type	-11.9602
morph	-11.9603
▁conspir	-11.9615
▁slug	-11.9637
▁Matteo	-11.9666
▁NORTHWEST	-11.9666
▁financial	-11.9666
▁Charlie	-11.9666
▁huddle	-11.9666
▁clunk	-11.9666
▁stubborn	-11.9666
▁drool	-11.9666
▁prospect	-11.9666
▁resort	-11.9666
▁Wendy	-11.9667
▁Hunt	-11.9674
QUE	-11.9676
AIR	-11.97
▁Lalrry	-11.9739
▁Language	-11.9739
▁SpeedIF	-11.9739
▁Sylvia	-11.9739
▁advertise	-11.9739
▁bookshelves	-11.9739
▁comfy	-11.9739
▁privacy	-11.9739
▁thomas	-11.9739
▁fingernail	-11.9739
▁bulge	-11.9739
▁steak	-11.9739
▁Driving	-11.9739
▁Cross	-11.9739
▁Henry	-11.9739
▁practi	-11.9743
▁preserve	-11.9744
▁brutal	-11.9745
Which	-11.9747
wolf	-11.9747
Hurr	-11.9782
▁thirst	-11.9789
oriented	-11.9806
▁Dynamo	-11.9812
comprehensible	-11.9812
▁blossom	-11.9812
▁ceremony	-11.9812
▁unscrew	-11.9812
▁scurries	-11.9812
▁jealous	-11.9812
▁dragged	-11.9812
▁Credit	-11.9812
▁piccol	-11.9812
▁abuse	-11.986
▁education	-11.9885
▁Mycroft	-11.9885
▁enclosure	-11.9885
▁mosaic	-11.9885
Certainly	-11.9885
▁Gordon	-11.9885
▁Gunther	-11.9885
▁amusement	-11.9885
▁Modern	-11.9885
▁Sherlock	-11.9885
▁gossip	-11.9885
▁acrid	-11.9886
▁Visit	-11.9886
▁PRI	-11.9904
dependent	-11.9949
▁Kitchen	-11.9959
▁assortment	-11.9959
▁nymph	-11.9959
▁procedure	-11.9959
▁terrifying	-11.9959
▁turret	-11.9959
smelling	-11.9969
Advanced	-12.0034
Excellent	-12.0034
▁Industries	-12.0034
▁labyrinth	-12.0034
▁maneuver	-12.0034
▁application	-12.0034
▁fluffy	-12.0034
▁uneasy	-12.0034
▁whatsoever	-12.0034
▁tutto	-12.0035
Especially	-12.0035
Against	-12.0109
▁SOUTHWEST	-12.0109
▁judging	-12.0109
▁occupant	-12.0109
▁pendulum	-12.0109
▁picnic	-12.0109
▁temporarily	-12.0109
▁unbearable	-12.0109
▁storyteller	-12.0109
▁bramble	-12.0109
▁hush	-12.011
Will	-12.0124
▁libera	-12.0176
▁navigation	-12.0185
Detective	-12.0185
▁Priestess	-12.0185
▁Service	-12.0185
▁Underneath	-12.0185
▁autumn	-12.0185
▁bouncing	-12.0185
▁illuminating	-12.0185
▁scenario	-12.0185
▁velocity	-12.0185
▁FROM	-12.0185
▁lazily	-12.0185
▁cackle	-12.0185
PLAY	-12.0185
▁slim	-12.0198
▁inject	-12.0224
▁ParseNoun	-12.0261
▁Written	-12.0261
▁absurd	-12.0261
▁vodka	-12.0261
▁grief	-12.0261
▁violin	-12.0261
▁wicker	-12.0261
▁Pierre	-12.0262
Curse	-12.0275
ctivating	-12.0288
▁contempla	-12.0327
Abstract	-12.0338
OBJECT	-12.0338
▁AGAIN	-12.0338
▁Introduction	-12.0338
▁cafeteria	-12.0338
▁executive	-12.0338
▁feminine	-12.0338
▁furnishings	-12.0338
▁physics	-12.0338
▁portcullis	-12.0338
▁satchel	-12.0338
▁noisily	-12.0338
▁nausea	-12.0351
coloured	-12.0369
▁____	-12.0406
unexplained	-12.0416
▁deputy	-12.0416
▁diagonal	-12.0416
▁frustrated	-12.0416
▁manuscript	-12.0416
▁Yellow	-12.0416
▁caretaker	-12.0416
▁genius	-12.0416
▁peasant	-12.0416
▁sleek	-12.0416
▁Project	-12.0416
▁policy	-12.0416
▁bleach	-12.0416
▁interfere	-12.0418
dimensional	-12.0442
▁snip	-12.0444
enthusiastic	-12.0494
▁dedicated	-12.0494
▁obstacle	-12.0494
▁reputation	-12.0494
▁celery	-12.0494
▁demonstrate	-12.0494
▁presume	-12.0494
▁auction	-12.0494
▁tunic	-12.0495
▁adequate	-12.0573
▁execution	-12.0573
▁gurgle	-12.0573
▁Sheppard	-12.0573
▁dazzling	-12.0573
▁occupy	-12.0573
▁widow	-12.0573
▁honour	-12.0573
▁vantage	-12.0573
▁sheriff	-12.0573
▁funeral	-12.0573
▁diploma	-12.0573
WAY	-12.0578
Error	-12.0587
▁1/0	-12.0643
▁giraffe	-12.0652
▁significance	-12.0652
▁solemn	-12.0652
▁Ocean	-12.0652
▁Evil	-12.0652
clusive	-12.0652
▁hyper	-12.0656
▁colleague	-12.0732
▁commotion	-12.0732
▁grammatical	-12.0732
▁grenade	-12.0732
▁grotesque	-12.0732
▁liquor	-12.0732
▁quartz	-12.0732
▁vigorously	-12.0732
▁fissure	-12.0732
▁Chapter	-12.0732
▁emptiness	-12.0732
▁modified	-12.0732
▁cedar	-12.0732
▁anticipation	-12.0813
▁butterfly	-12.0813
▁flourish	-12.0813
▁parachute	-12.0813
▁peristylium	-12.0813
▁reassuring	-12.0813
▁College	-12.0813
▁Provider	-12.0813
▁WHY	-12.0813
▁preparation	-12.0813
▁horrid	-12.0813
▁depressed	-12.0813
▁clank	-12.0814
▁scoot	-12.0816
▁convict	-12.0817
special	-12.0829
hearted	-12.0854
▁Immediately	-12.0894
▁Sergeant	-12.0894
▁Symington	-12.0894
▁ashtray	-12.0894
▁disbelief	-12.0894
▁harvest	-12.0894
▁proportion	-12.0894
▁enhance	-12.0894
▁dunno	-12.0894
▁Steel	-12.0895
▁erect	-12.0906
Alright	-12.096
WARNING	-12.0976
▁Usually	-12.0976
▁protagonist	-12.0976
▁revolution	-12.0976
▁brittle	-12.0976
▁whistling	-12.0976
▁cherub	-12.0976
▁chorus	-12.0976
▁coarse	-12.0976
▁fulfill	-12.0977
▁voi	-12.1013
▁predict	-12.1055
▁definition	-12.1058
▁embarrassing	-12.1058
▁religion	-12.1058
▁Normally	-12.1058
▁cavity	-12.1058
▁imperative	-12.1058
▁injured	-12.1058
